<unk>	0
<s>	0
</s>	0
<pad>	0
▁t	-0
▁a	-1
en	-2
es	-3
er	-4
▁d	-5
on	-6
▁p	-7
▁s	-8
in	-9
▁th	-10
▁c	-11
is	-12
os	-13
▁l	-14
or	-15
ar	-16
▁de	-17
re	-18
ti	-19
an	-20
as	-21
▁m	-22
ci	-23
ent	-24
▁the	-25
▁w	-26
al	-27
▁h	-28
▁o	-29
▁e	-30
ro	-31
qu	-32
▁n	-33
at	-34
un	-35
▁f	-36
ed	-37
▁to	-38
▁qu	-39
ad	-40
▁in	-41
▁es	-42
om	-43
▁la	-44
it	-45
▁b	-46
am	-47
id	-48
▁que	-49
▁E	-50
ón	-51
▁en	-52
le	-53
▁re	-54
ic	-55
res	-56
▁con	-57
▁I	-58
▁is	-59
▁of	-60
▁T	-61
us	-62
ec	-63
▁no	-64
▁an	-65
ou	-66
▁C	-67
▁P	-68
▁y	-69
▁un	-70
tion	-71
▁ha	-72
em	-73
ing	-74
▁se	-75
ta	-76
▁el	-77
▁Th	-78
ve	-79
te	-80
im	-81
▁S	-82
▁pro	-83
ra	-84
▁be	-85
▁al	-86
ol	-87
▁v	-88
ción	-89
to	-90
ur	-91
▁g	-92
il	-93
ente	-94
▁M	-95
pe	-96
▁and	-97
ly	-98
▁com	-99
ion	-100
▁A	-101
▁that	-102
tr	-103
▁Com	-104
▁los	-105
▁for	-106
▁this	-107
ce	-108
do	-109
ul	-110
▁par	-111
▁su	-112
▁L	-113
ues	-114
ado	-115
ter	-116
ort	-117
▁we	-118
▁on	-119
▁wh	-120
ir	-121
ut	-122
▁res	-123
ble	-124
ch	-125
uro	-126
▁W	-127
ere	-128
▁las	-129
▁as	-130
▁The	-131
lo	-132
ig	-133
ión	-134
▁are	-135
ld	-136
▁ex	-137
▁Es	-138
tic	-139
▁not	-140
ación	-141
port	-142
ay	-143
▁del	-144
io	-145
end	-146
▁una	-147
▁deb	-148
▁it	-149
ment	-150
ation	-151
▁ac	-152
ould	-153
▁have	-154
ate	-155
se	-156
emos	-157
▁Euro	-158
▁im	-159
ill	-160
▁N	-161
ust	-162
for	-163
ver	-164
resid	-165
th	-166
▁so	-167
cion	-168
ke	-169
ament	-170
▁por	-171
▁Presid	-172
sion	-173
ía	-174
li	-175
tiv	-176
▁lo	-177
mis	-178
cia	-179
st	-180
ue	-181
▁est	-182
▁di	-183
bi	-184
ero	-185
▁We	-186
▁pol	-187
od	-188
▁pr	-189
ith	-190
▁ap	-191
▁mu	-192
▁H	-193
▁will	-194
▁Mr	-195
idad	-196
ant	-197
▁Europe	-198
ud	-199
00	-200
▁Se	-201
▁ne	-202
▁pre	-203
▁sh	-204
▁U	-205
▁with	-206
ab	-207
ñor	-208
▁D	-209
▁do	-210
▁me	-211
mission	-212
▁(	-213
▁Comis	-214
▁you	-215
ich	-216
▁tr	-217
up	-218
▁Commission	-219
▁has	-220
ac	-221
ia	-222
▁ser	-223
go	-224
amos	-225
ás	-226
ien	-227
ect	-228
la	-229
▁prop	-230
ple	-231
um	-232
▁des	-233
▁para	-234
▁Par	-235
cial	-236
ten	-237
▁r	-238
▁La	-239
▁am	-240
▁le	-241
▁j	-242
▁ag	-243
▁B	-244
gun	-245
▁pos	-246
ib	-247
▁El	-248
▁cons	-249
form	-250
ante	-251
▁1	-252
▁co	-253
amente	-254
▁It	-255
▁este	-256
ity	-257
▁F	-258
▁This	-259
era	-260
ido	-261
el	-262
mo	-263
ciones	-264
ambi	-265
ers	-266
▁ob	-267
▁No	-268
▁resp	-269
▁dis	-270
▁ab	-271
▁Un	-272
▁esta	-273
▁import	-274
tu	-275
cer	-276
▁can	-277
fic	-278
▁there	-279
▁ver	-280
▁cont	-281
▁En	-282
▁which	-283
▁más	-284
ow	-285
ada	-286
ces	-287
bre	-288
▁President	-289
én	-290
and	-291
ist	-292
▁inter	-293
▁In	-294
et	-295
▁would	-296
▁at	-297
so	-298
▁or	-299
▁must	-300
fer	-301
▁Comisión	-302
▁¿	-303
▁Señor	-304
co	-305
ados	-306
lar	-307
▁vo	-308
ug	-309
▁em	-310
▁pu	-311
▁by	-312
tive	-313
uc	-314
ici	-315
ech	-316
per	-317
▁li	-318
▁reg	-319
ome	-320
ambién	-321
ma	-322
▁G	-323
ven	-324
▁po	-325
ario	-326
▁should	-327
ts	-328
lic	-329
ese	-330
▁ma	-331
olu	-332
rec	-333
uest	-334
gr	-335
ard	-336
ales	-337
▁tod	-338
▁ta	-339
▁pres	-340
lament	-341
ans	-342
▁ad	-343
▁all	-344
▁go	-345
eces	-346
ític	-347
ge	-348
▁us	-349
our	-350
▁cu	-351
▁much	-352
▁O	-353
▁also	-354
con	-355
und	-356
igh	-357
ther	-358
▁been	-359
▁debate	-360
▁Y	-361
ber	-362
▁per	-363
▁Por	-364
▁our	-365
out	-366
▁sobre	-367
lamento	-368
ore	-369
pa	-370
▁posi	-371
▁Con	-372
mente	-373
▁polític	-374
▁European	-375
▁pa	-376
▁fin	-377
tar	-378
▁comp	-379
cl	-380
iz	-381
ient	-382
▁pued	-383
▁man	-384
▁R	-385
▁need	-386
iti	-387
uer	-388
▁very	-389
ie	-390
jo	-391
án	-392
ond	-393
▁op	-394
encia	-395
▁wor	-396
iv	-397
liament	-398
▁inform	-399
no	-400
▁también	-401
▁mi	-402
▁cre	-403
ll	-404
▁Parlamento	-405
▁2	-406
▁nos	-407
▁like	-408
▁real	-409
▁neces	-410
▁Presidente	-411
ies	-412
ure	-413
les	-414
ted	-415
▁como	-416
▁ra	-417
emp	-418
▁.	-419
▁direc	-420
▁was	-421
tions	-422
rom	-423
all	-424
cis	-425
▁he	-426
ún	-427
pres	-428
tiva	-429
de	-430
par	-431
▁muy	-432
▁about	-433
▁proble	-434
der	-435
▁what	-436
▁ten	-437
ba	-438
cep	-439
fore	-440
av	-441
ens	-442
cias	-443
ish	-444
me	-445
if	-446
▁hay	-447
ement	-448
▁med	-449
▁more	-450
pp	-451
▁sit	-452
one	-453
ora	-454
▁pod	-455
▁Q	-456
▁ch	-457
▁mar	-458
▁son	-459
99	-460
int	-461
▁these	-462
ced	-463
tros	-464
▁pl	-465
▁st	-466
ios	-467
▁ins	-468
gu	-469
oy	-470
▁app	-471
▁car	-472
▁gr	-473
▁from	-474
▁important	-475
ult	-476
▁As	-477
inci	-478
unto	-479
ecto	-480
▁pe	-481
act	-482
▁men	-483
▁one	-484
est	-485
ier	-486
use	-487
ally	-488
que	-489
▁report	-490
▁cas	-491
▁imp	-492
▁mis	-493
▁That	-494
▁Sr	-495
▁cr	-496
▁princi	-497
▁han	-498
▁cues	-499
▁trans	-500
▁ent	-501
▁Wh	-502
▁fe	-503
▁sus	-504
▁ques	-505
▁propos	-506
▁Parliament	-507
tos	-508
▁some	-509
ments	-510
di	-511
tión	-512
▁debe	-513
▁señor	-514
▁my	-515
ando	-516
br	-517
▁leg	-518
ica	-519
ater	-520
▁tra	-521
ive	-522
▁tan	-523
▁There	-524
cil	-525
ons	-526
▁sin	-527
▁política	-528
ís	-529
▁but	-530
uesta	-531
leg	-532
ustr	-533
▁resolu	-534
king	-535
▁esto	-536
mit	-537
▁si	-538
▁mo	-539
ever	-540
gram	-541
los	-542
ores	-543
▁rec	-544
ugar	-545
▁sub	-546
▁social	-547
▁V	-548
000	-549
ence	-550
▁iss	-551
duc	-552
ime	-553
▁lugar	-554
▁nuest	-555
▁polic	-556
▁program	-557
mas	-558
ide	-559
▁Esto	-560
rol	-561
▁any	-562
▁situ	-563
ff	-564
▁trat	-565
able	-566
▁pregun	-567
▁informe	-568
ank	-569
▁Est	-570
▁cos	-571
▁ind	-572
▁obj	-573
aciones	-574
cu	-575
ary	-576
▁De	-577
▁hacer	-578
ame	-579
▁ar	-580
irst	-581
ong	-582
ates	-583
iera	-584
▁therefore	-585
▁Commissioner	-586
ida	-587
▁up	-588
iend	-589
▁exp	-590
ations	-591
ain	-592
dop	-593
▁coun	-594
▁present	-595
oc	-596
err	-597
▁ca	-598
ible	-599
▁prim	-600
▁policy	-601
▁oc	-602
▁está	-603
▁K	-604
echo	-605
ular	-606
▁tien	-607
owever	-608
tain	-609
▁say	-610
▁def	-611
▁k	-612
ade	-613
cir	-614
oun	-615
ance	-616
ight	-617
▁may	-618
▁now	-619
▁adop	-620
▁puede	-621
ip	-622
▁Europa	-623
ess	-624
ider	-625
▁sup	-626
ag	-627
ear	-628
▁econ	-629
és	-630
▁sig	-631
▁Unión	-632
▁compe	-633
cern	-634
ific	-635
▁want	-636
▁concern	-637
▁añ	-638
lear	-639
▁its	-640
▁euro	-641
erv	-642
ated	-643
▁decis	-644
▁importante	-645
ast	-646
bar	-647
▁An	-648
▁out	-649
▁algun	-650
▁under	-651
▁cuestión	-652
ior	-653
▁Union	-654
almente	-655
ca	-656
▁sa	-657
aria	-658
▁clar	-659
▁only	-660
▁take	-661
▁contr	-662
▁question	-663
sel	-664
▁enm	-665
▁who	-666
iento	-667
ilidad	-668
ord	-669
uev	-670
▁ve	-671
hora	-672
▁dif	-673
▁país	-674
▁enmiend	-675
za	-676
itic	-677
▁form	-678
▁time	-679
wo	-680
ink	-681
ember	-682
▁aut	-683
▁gra	-684
▁opin	-685
▁too	-686
▁serv	-687
▁again	-688
▁proposal	-689
tivo	-690
iones	-691
▁Conse	-692
ms	-693
ree	-694
▁ev	-695
▁just	-696
mos	-697
▁hab	-698
▁spe	-699
▁Pero	-700
▁refer	-701
▁countr	-702
▁proces	-703
▁-	-704
reat	-705
ting	-706
▁ref	-707
▁actu	-708
▁todo	-709
▁your	-710
enti	-711
▁pero	-712
▁fut	-713
entes	-714
ility	-715
▁tanto	-716
ga	-717
▁ya	-718
▁pers	-719
▁respons	-720
▁Consejo	-721
▁princip	-722
ema	-723
tas	-724
tes	-725
truc	-726
uman	-727
▁conf	-728
▁point	-729
▁4	-730
tro	-731
vis	-732
blic	-733
titu	-734
▁3	-735
ico	-736
▁Coun	-737
▁fund	-738
min	-739
oso	-740
zar	-741
▁Comisario	-742
rá	-743
▁clear	-744
▁ello	-745
▁other	-746
▁europe	-747
▁Council	-748
wn	-749
▁But	-750
▁bas	-751
▁make	-752
▁nuev	-753
isiera	-754
▁their	-755
▁ú	-756
cid	-757
ice	-758
low	-759
eral	-760
iero	-761
▁ext	-762
▁fav	-763
ied	-764
▁EU	-765
▁ho	-766
▁fact	-767
▁incl	-768
▁qued	-769
▁issue	-770
cy	-771
lec	-772
lie	-773
uen	-774
▁af	-775
▁min	-776
usted	-777
▁disc	-778
▁decir	-779
▁todos	-780
▁respecto	-781
ise	-782
▁St	-783
ople	-784
▁dos	-785
▁mod	-786
▁pas	-787
ticular	-788
du	-789
ves	-790
▁sec	-791
▁they	-792
▁vote	-793
▁embar	-794
▁traba	-795
▁usted	-796
▁particular	-797
uch	-798
adas	-799
▁reform	-800
▁consider	-801
▁"	-802
ece	-803
▁So	-804
▁der	-805
▁sol	-806
▁year	-807
▁finan	-808
▁think	-809
▁tiene	-810
arse	-811
▁mat	-812
▁bien	-813
▁parti	-814
▁trata	-815
▁embargo	-816
ose	-817
ious	-818
▁new	-819
▁pla	-820
▁first	-821
og	-822
cre	-823
ías	-824
▁Qu	-825
▁gen	-826
lieve	-827
▁obje	-828
▁human	-829
her	-830
ine	-831
▁work	-832
▁comun	-833
▁people	-834
▁Los	-835
▁bec	-836
▁ese	-837
▁What	-838
▁legis	-839
ana	-840
now	-841
▁Me	-842
▁199	-843
▁mer	-844
▁exam	-845
▁politic	-846
▁support	-847
gur	-848
▁Am	-849
▁Re	-850
▁ej	-851
ject	-852
▁two	-853
▁way	-854
uerdo	-855
▁appro	-856
ito	-857
lti	-858
▁if	-859
▁hope	-860
▁Member	-861
▁contin	-862
▁propuesta	-863
gan	-864
▁Sin	-865
▁fr	-866
tras	-867
▁cor	-868
▁pon	-869
▁see	-870
tación	-871
▁punto	-872
▁result	-873
ef	-874
igu	-875
ólo	-876
▁ter	-877
▁sido	-878
▁them	-879
▁hemos	-880
▁believe	-881
jor	-882
▁sim	-883
▁últi	-884
are	-885
den	-886
not	-887
urr	-888
thing	-889
tivos	-890
▁know	-891
▁cannot	-892
▁comple	-893
▁econom	-894
ará	-895
ibu	-896
▁val	-897
▁hecho	-898
▁matter	-899
▁debemos	-900
▁Las	-901
▁obs	-902
▁qué	-903
▁requ	-904
▁amend	-905
▁Europea	-906
xt	-907
mun	-908
ras	-909
uda	-910
▁asp	-911
▁demo	-912
▁were	-913
▁Thank	-914
▁Al	-915
gh	-916
ken	-917
tal	-918
ved	-919
usti	-920
▁Cre	-921
▁ask	-922
table	-923
uesto	-924
▁made	-925
▁democ	-926
ne	-927
pl	-928
dad	-929
▁sy	-930
▁Mrs	-931
▁Pro	-932
▁bet	-933
▁dich	-934
▁said	-935
▁ahora	-936
▁estos	-937
▁States	-938
▁países	-939
ress	-940
roup	-941
▁aqu	-942
oment	-943
▁good	-944
▁part	-945
▁parte	-946
▁proced	-947
▁produc	-948
pr	-949
-00	-950
ite	-951
▁te	-952
▁rel	-953
ustria	-954
▁deber	-955
▁However	-956
):	-957
ical	-958
itar	-959
ural	-960
▁cer	-961
▁lim	-962
▁disp	-963
▁here	-964
▁gracias	-965
ach	-966
tir	-967
xim	-968
enta	-969
pend	-970
▁tom	-971
▁such	-972
▁tend	-973
ough	-974
▁dem	-975
▁eso	-976
▁sea	-977
▁prot	-978
▁primer	-979
▁control	-980
▁É	-981
▁Ch	-982
▁ur	-983
idas	-984
oper	-985
orte	-986
▁eff	-987
▁tal	-988
▁does	-989
▁entre	-990
▁mayor	-991
ational	-992
▁Estados	-993
ck	-994
cio	-995
▁str	-996
▁algo	-997
▁estas	-998
▁nuestro	-999
ap	-1000
ias	-1001
row	-1002
read	-1003
▁cour	-1004
▁many	-1005
▁contra	-1006
▁acuerdo	-1007
▁J	-1008
vers	-1009
ities	-1010
▁than	-1011
▁cooper	-1012
▁person	-1013
▁Creo	-1014
▁miem	-1015
▁segun	-1016
▁nuestra	-1017
▁directiva	-1018
▁political	-1019
iew	-1020
pli	-1021
▁ay	-1022
▁And	-1023
▁env	-1024
ancia	-1025
▁clos	-1026
▁creo	-1027
▁into	-1028
▁over	-1029
▁intern	-1030
▁tenemos	-1031
▁é	-1032
ang	-1033
lop	-1034
ost	-1035
▁Ha	-1036
very	-1037
▁ses	-1038
▁agre	-1039
▁apro	-1040
▁deal	-1041
▁could	-1042
▁observ	-1043
▁quisiera	-1044
▁fundament	-1045
▁resolución	-1046
mon	-1047
▁fa	-1048
ency	-1049
vern	-1050
▁vis	-1051
echos	-1052
velop	-1053
▁queda	-1054
ase	-1055
ina	-1056
upo	-1057
▁hoy	-1058
▁sect	-1059
▁discus	-1060
▁Presidenta	-1061
ismo	-1062
land	-1063
▁emp	-1064
▁hor	-1065
▁mon	-1066
▁pal	-1067
▁long	-1068
▁mucho	-1069
▁today	-1070
▁asunto	-1071
▁También	-1072
▁resolution	-1073
cul	-1074
ian	-1075
tado	-1076
▁Fin	-1077
▁inv	-1078
▁aquí	-1079
pecial	-1080
▁being	-1081
▁mismo	-1082
▁region	-1083
▁countries	-1084
▁jo	-1085
▁sti	-1086
arios	-1087
▁merc	-1088
▁aplic	-1089
▁deben	-1090
▁palab	-1091
▁interes	-1092
▁pregunta	-1093
▁situación	-1094
▁Lo	-1095
ause	-1096
▁abs	-1097
▁agu	-1098
▁dec	-1099
▁fun	-1100
▁why	-1101
ready	-1102
▁años	-1103
▁exis	-1104
▁happ	-1105
▁same	-1106
▁sólo	-1107
tencia	-1108
▁desar	-1109
ización	-1110
▁develop	-1111
▁problema	-1112
▁¡	-1113
ind	-1114
tin	-1115
▁bo	-1116
▁va	-1117
anos	-1118
ised	-1119
itor	-1120
udad	-1121
▁día	-1122
▁nor	-1123
▁tur	-1124
▁Este	-1125
▁apoy	-1126
▁noso	-1127
▁concl	-1128
▁place	-1129
guridad	-1130
▁course	-1131
▁moment	-1132
▁directive	-1133
po	-1134
lev	-1135
aría	-1136
▁Hay	-1137
▁cam	-1138
▁vez	-1139
▁syst	-1140
▁dicho	-1141
▁great	-1142
▁against	-1143
▁already	-1144
/2	-1145
ak	-1146
he	-1147
ays	-1148
ire	-1149
▁Gr	-1150
bier	-1151
endo	-1152
▁far	-1153
▁lib	-1154
▁nat	-1155
▁ning	-1156
▁view	-1157
▁están	-1158
▁nosotros	-1159
▁enmiendas	-1160
▁To	-1161
▁ci	-1162
bros	-1163
iron	-1164
ward	-1165
▁few	-1166
▁reas	-1167
▁sign	-1168
portun	-1169
▁justi	-1170
▁expres	-1171
ugh	-1172
come	-1173
iemp	-1174
ings	-1175
▁dar	-1176
▁buen	-1177
▁caso	-1178
▁rela	-1179
▁then	-1180
idades	-1181
▁years	-1182
▁ciudad	-1183
▁Is	-1184
▁ro	-1185
▁así	-1186
▁end	-1187
▁num	-1188
▁Esta	-1189
▁Ques	-1190
▁They	-1191
▁These	-1192
▁forma	-1193
▁marke	-1194
▁shall	-1195
▁still	-1196
▁taken	-1197
▁parece	-1198
▁podemos	-1199
▁problem	-1200
▁especial	-1201
▁principio	-1202
Qu	-1203
fe	-1204
pec	-1205
entr	-1206
icio	-1207
imin	-1208
▁equ	-1209
▁his	-1210
acion	-1211
▁sist	-1212
▁word	-1213
▁ampli	-1214
▁sector	-1215
▁within	-1216
▁miembros	-1217
▁position	-1218
▁situation	-1219
El	-1220
ér	-1221
loy	-1222
urs	-1223
▁br	-1224
atis	-1225
/2000	-1226
ently	-1227
▁hace	-1228
▁mater	-1229
▁medio	-1230
▁system	-1231
▁estamos	-1232
▁votación	-1233
▁agreement	-1234
▁principle	-1235
ER	-1236
cr	-1237
ks	-1238
hor	-1239
▁ide	-1240
▁ambi	-1241
▁done	-1242
▁senti	-1243
▁legisl	-1244
▁regard	-1245
▁repres	-1246
ironment	-1247
▁algunos	-1248
▁certain	-1249
▁trabajo	-1250
▁necesario	-1251
da	-1252
fr	-1253
we	-1254
▁á	-1255
rac	-1256
▁Ac	-1257
enda	-1258
iere	-1259
tura	-1260
▁Mad	-1261
▁Sra	-1262
▁wel	-1263
ights	-1264
tives	-1265
ument	-1266
▁ejemp	-1267
▁limit	-1268
▁regul	-1269
▁democra	-1270
▁transpar	-1271
vo	-1272
zo	-1273
ecu	-1274
omen	-1275
ones	-1276
▁Min	-1277
▁raz	-1278
iendo	-1279
iente	-1280
▁Much	-1281
▁tema	-1282
▁well	-1283
▁extre	-1284
▁horas	-1285
▁tiemp	-1286
▁enmienda	-1287
emb	-1288
jer	-1289
las	-1290
man	-1291
nos	-1292
▁He	-1293
▁UE	-1294
▁És	-1295
sure	-1296
tica	-1297
▁fal	-1298
sible	-1299
▁when	-1300
munity	-1301
▁condi	-1302
▁Señora	-1303
▁Austria	-1304
▁contribu	-1305
▁seguridad	-1306
-0	-1307
ory	-1308
▁Deb	-1309
▁agr	-1310
▁col	-1311
▁dur	-1312
▁esa	-1313
▁lar	-1314
▁own	-1315
▁pes	-1316
▁most	-1317
ibility	-1318
▁differ	-1319
▁future	-1320
▁plante	-1321
▁because	-1322
▁process	-1323
▁responsab	-1324
▁something	-1325
▁11	-1326
▁ef	-1327
pero	-1328
▁sal	-1329
antes	-1330
untos	-1331
▁case	-1332
▁gran	-1333
▁mill	-1334
▁solu	-1335
▁wish	-1336
▁closed	-1337
▁formul	-1338
▁precis	-1339
▁protec	-1340
▁competi	-1341
▁however	-1342
▁desarrol	-1343
▁environment	-1344
▁5	-1345
eno	-1346
erg	-1347
▁If	-1348
▁Tr	-1349
chie	-1350
▁For	-1351
ating	-1352
atisf	-1353
▁prov	-1354
▁Amend	-1355
▁achie	-1356
▁nuevo	-1357
▁otros	-1358
▁water	-1359
vernment	-1360
▁interven	-1361
▁programa	-1362
cal	-1363
dem	-1364
ino	-1365
lex	-1366
▁yo	-1367
self	-1368
▁You	-1369
▁2000	-1370
▁cerr	-1371
▁give	-1372
▁nues	-1373
▁obst	-1374
▁quer	-1375
▁Madam	-1376
▁accep	-1377
▁every	-1378
▁mejor	-1379
▁prior	-1380
▁thank	-1381
▁necess	-1382
▁second	-1383
▁tiempo	-1384
▁ponente	-1385
▁Question	-1386
mes	-1387
masi	-1388
ween	-1389
▁add	-1390
▁ges	-1391
▁had	-1392
ectos	-1393
▁ante	-1394
▁area	-1395
▁come	-1396
▁dese	-1397
▁prev	-1398
▁defin	-1399
▁resul	-1400
▁demasi	-1401
▁quiero	-1402
▁opinión	-1403
▁amendments	-1404
mb	-1405
ty	-1406
iar	-1407
med	-1408
▁12	-1409
ange	-1410
icia	-1411
▁Sch	-1412
▁int	-1413
▁put	-1414
▁sta	-1415
▁tot	-1416
ative	-1417
▁cier	-1418
▁inde	-1419
/2000)	-1420
▁favor	-1421
▁orden	-1422
▁organ	-1423
▁right	-1424
▁compro	-1425
▁between	-1426
▁mention	-1427
▁proceso	-1428
▁decision	-1429
bl	-1430
tra	-1431
▁Si	-1432
cess	-1433
imos	-1434
ocup	-1435
▁how	-1436
úblic	-1437
▁elec	-1438
emente	-1439
▁legal	-1440
▁tendrá	-1441
▁preocup	-1442
▁sentido	-1443
▁respuesta	-1444
óm	-1445
Qué	-1446
age	-1447
▁aw	-1448
idos	-1449
▁inc	-1450
▁jur	-1451
▁sab	-1452
mitte	-1453
▁docu	-1454
▁plan	-1455
▁rapp	-1456
▁Grupo	-1457
▁menos	-1458
▁recon	-1459
▁financi	-1460
▁institu	-1461
▁mercado	-1462
ác	-1463
ety	-1464
ual	-1465
▁gu	-1466
ateg	-1467
izar	-1468
▁ful	-1469
stand	-1470
▁exce	-1471
orteur	-1472
uestas	-1473
▁Inter	-1474
▁claro	-1475
▁desde	-1476
isation	-1477
loyment	-1478
▁happen	-1479
▁market	-1480
▁number	-1481
▁partici	-1482
▁posible	-1483
▁rapporteur	-1484
cim	-1485
ful	-1486
ial	-1487
van	-1488
cido	-1489
▁Así	-1490
▁dra	-1491
▁Koso	-1492
▁mujer	-1493
▁cerrado	-1494
▁general	-1495
vel	-1496
▁Go	-1497
ture	-1498
▁Pre	-1499
▁law	-1500
tivas	-1501
▁prog	-1502
mittee	-1503
▁difer	-1504
▁going	-1505
▁initi	-1506
▁stand	-1507
▁tener	-1508
tamente	-1509
▁Muchas	-1510
▁porque	-1511
▁satisf	-1512
▁Europeo	-1513
▁obstante	-1514
▁necessary	-1515
▁competencia	-1516
▁7	-1517
get	-1518
mar	-1519
tle	-1520
wer	-1521
▁ni	-1522
anti	-1523
guir	-1524
pleo	-1525
▁Des	-1526
▁ben	-1527
▁off	-1528
▁tax	-1529
truct	-1530
▁agua	-1531
▁meas	-1532
▁soci	-1533
▁cosas	-1534
▁speak	-1535
plement	-1536
▁action	-1537
▁concre	-1538
▁rights	-1539
▁country	-1540
▁opinion	-1541
▁segundo	-1542
▁welcome	-1543
▁posición	-1544
ign	-1545
ous	-1546
olog	-1547
▁Ten	-1548
▁aid	-1549
▁loo	-1550
▁lleg	-1551
▁otra	-1552
selves	-1553
▁coleg	-1554
▁conse	-1555
▁public	-1556
▁públic	-1557
▁último	-1558
▁necesit	-1559
▁concerns	-1560
Par	-1561
gra	-1562
ors	-1563
▁Fr	-1564
▁My	-1565
▁sí	-1566
ures	-1567
▁ans	-1568
▁año	-1569
▁fol	-1570
▁use	-1571
▁acep	-1572
▁habl	-1573
▁high	-1574
▁nada	-1575
ficult	-1576
▁First	-1577
▁final	-1578
▁objec	-1579
▁order	-1580
▁inicia	-1581
▁verdad	-1582
▁adopted	-1583
▁example	-1584
▁serious	-1585
▁sistema	-1586
Parliament	-1587
▁Community	-1588
▁compromis	-1589
▁programme	-1590
▁ciudadanos	-1591
▁responsabilidad	-1592
ply	-1593
ómo	-1594
ecta	-1595
fici	-1596
iter	-1597
▁Tod	-1598
▁cal	-1599
▁set	-1600
aster	-1601
íamos	-1602
▁cada	-1603
▁cual	-1604
▁poin	-1605
▁esper	-1606
▁hasta	-1607
▁means	-1608
▁consum	-1609
▁follow	-1610
▁futuro	-1611
▁issues	-1612
ibilidad	-1613
▁ejemplo	-1614
▁industr	-1615
▁momento	-1616
▁implement	-1617
▁preguntas	-1618
▁questions	-1619
▁desarrollo	-1620
▁propuestas	-1621
ism	-1622
▁On	-1623
5-00	-1624
itiz	-1625
ving	-1626
▁tip	-1627
▁urg	-1628
▁ámb	-1629
ately	-1630
▁both	-1631
▁next	-1632
▁prof	-1633
▁reci	-1634
▁agree	-1635
▁benef	-1636
▁común	-1637
▁incre	-1638
▁produ	-1639
▁Kosovo	-1640
▁author	-1641
▁before	-1642
▁cuando	-1643
▁declar	-1644
▁económ	-1645
▁empres	-1646
▁possible	-1647
▁signific	-1648
▁demasiado	-1649
▁understand	-1650
.00	-1651
/00	-1652
can	-1653
lig	-1654
ría	-1655
▁da	-1656
ents	-1657
ital	-1658
usos	-1659
utes	-1660
/00):	-1661
icios	-1662
▁able	-1663
▁even	-1664
▁inten	-1665
▁those	-1666
▁women	-1667
▁Pregun	-1668
▁agenda	-1669
▁common	-1670
▁señora	-1671
▁respect	-1672
bo	-1673
hí	-1674
▁6	-1675
▁8	-1676
▁z	-1677
kes	-1678
sid	-1679
▁és	-1680
iven	-1681
▁ass	-1682
▁beh	-1683
▁cap	-1684
▁pró	-1685
▁van	-1686
▁evid	-1687
▁last	-1688
▁modo	-1689
▁nego	-1690
▁proy	-1691
▁pues	-1692
▁reco	-1693
▁terr	-1694
▁Group	-1695
▁Prodi	-1696
▁cambi	-1697
▁citiz	-1698
▁exper	-1699
▁marco	-1700
▁favour	-1701
▁prepar	-1702
cimiento	-1703
▁mujeres	-1704
▁constitu	-1705
ío	-1706
ace	-1707
ack	-1708
ell	-1709
els	-1710
ena	-1711
uti	-1712
ían	-1713
▁fo	-1714
lici	-1715
uego	-1716
ñana	-1717
▁sur	-1718
▁tem	-1719
lause	-1720
▁Como	-1721
▁curr	-1722
▁gust	-1723
terior	-1724
urther	-1725
▁areas	-1726
▁instr	-1727
▁where	-1728
▁Espero	-1729
▁pueden	-1730
▁trabaj	-1731
▁algunas	-1732
▁medidas	-1733
▁Señorías	-1734
▁cuestion	-1735
▁derechos	-1736
▁formulada	-1737
▁políticas	-1738
▁competition	-1739
▁importancia	-1740
íd	-1741
bal	-1742
osi	-1743
tim	-1744
una	-1745
▁ún	-1746
ices	-1747
icos	-1748
ouse	-1749
ueba	-1750
▁aún	-1751
▁suc	-1752
icial	-1753
istas	-1754
▁sino	-1755
▁Ahora	-1756
▁intro	-1757
▁poder	-1758
▁todas	-1759
▁answer	-1760
▁mañana	-1761
▁muchas	-1762
▁reason	-1763
▁sitting	-1764
▁subject	-1765
▁cuestiones	-1766
tan	-1767
▁Cu	-1768
▁Le	-1769
anto	-1770
▁apr	-1771
▁cab	-1772
▁inf	-1773
▁lab	-1774
iment	-1775
orrow	-1776
▁caus	-1777
▁hand	-1778
▁llev	-1779
▁seem	-1780
cionar	-1781
▁group	-1782
acional	-1783
▁accept	-1784
▁includ	-1785
▁muchos	-1786
▁comunit	-1787
▁continu	-1788
▁primera	-1789
▁problems	-1790
▁represent	-1791
▁development	-1792
op	-1793
▁9	-1794
put	-1795
tad	-1796
▁Yo	-1797
ivil	-1798
▁Nos	-1799
▁Pat	-1800
▁glo	-1801
▁sen	-1802
▁war	-1803
ether	-1804
▁hist	-1805
▁poco	-1806
▁tipo	-1807
▁toda	-1808
entral	-1809
▁House	-1810
▁aprob	-1811
▁enlar	-1812
▁juríd	-1813
▁manag	-1814
▁words	-1815
▁points	-1816
▁Señoría	-1817
▁estable	-1818
▁forward	-1819
▁Pregunta	-1820
▁decisión	-1821
▁national	-1822
AD	-1823
ye	-1824
ña	-1825
ati	-1826
▁ke	-1827
atul	-1828
undo	-1829
▁Sol	-1830
▁ste	-1831
ality	-1832
rough	-1833
▁fish	-1834
▁otro	-1835
▁star	-1836
bierno	-1837
gratul	-1838
lausos	-1839
▁antes	-1840
▁civil	-1841
▁haber	-1842
amiento	-1843
▁Patten	-1844
▁empleo	-1845
▁sesión	-1846
▁Debemos	-1847
▁extreme	-1848
▁palabra	-1849
▁gustaría	-1850
▁objetivo	-1851
▁presente	-1852
▁tomorrow	-1853
▁Amendment	-1854
▁different	-1855
▁fundamental	-1856
je	-1857
ph	-1858
pu	-1859
The	-1860
ban	-1861
led	-1862
red	-1863
xto	-1864
▁At	-1865
ning	-1866
oura	-1867
▁hel	-1868
▁nom	-1869
amble	-1870
empre	-1871
ender	-1872
▁fuer	-1873
▁logr	-1874
▁stat	-1875
gement	-1876
▁diput	-1877
▁impro	-1878
▁needs	-1879
▁Quiero	-1880
▁actual	-1881
▁felici	-1882
▁próxim	-1883
▁really	-1884
▁tienen	-1885
▁gestión	-1886
▁siempre	-1887
▁document	-1888
▁particip	-1889
▁personas	-1890
▁concerned	-1891
lu	-1892
cha	-1893
ene	-1894
eng	-1895
lan	-1896
ador	-1897
▁bre	-1898
▁cul	-1899
▁dat	-1900
▁señ	-1901
▁uti	-1902
ondos	-1903
▁duda	-1904
▁meet	-1905
vision	-1906
▁allow	-1907
▁autor	-1908
▁oblig	-1909
▁whole	-1910
▁realiz	-1911
▁things	-1912
▁achieve	-1913
▁citizens	-1914
▁economic	-1915
▁positive	-1916
▁congratul	-1917
▁extremely	-1918
▁financial	-1919
▁objetivos	-1920
▁proposals	-1921
▁ampliación	-1922
..	-1923
ik	-1924
aba	-1925
▁Br	-1926
▁Di	-1927
▁vi	-1928
adic	-1929
eros	-1930
tico	-1931
▁Per	-1932
▁gar	-1933
▁get	-1934
▁sug	-1935
▁vol	-1936
blish	-1937
ursos	-1938
▁inte	-1939
adores	-1940
ientes	-1941
▁activ	-1942
▁ayuda	-1943
▁invol	-1944
▁conven	-1945
▁ensure	-1946
▁Asamble	-1947
▁service	-1948
▁disaster	-1949
▁iniciativa	-1950
fo	-1951
gn	-1952
ál	-1953
/99	-1954
EAD	-1955
car	-1956
com	-1957
ird	-1958
tor	-1959
tud	-1960
▁Ya	-1961
▁ir	-1962
stan	-1963
tely	-1964
▁Gra	-1965
▁Sec	-1966
▁bus	-1967
▁ess	-1968
▁sem	-1969
/99):	-1970
EADER	-1971
ortug	-1972
▁idea	-1973
embers	-1974
▁energ	-1975
▁estar	-1976
▁exist	-1977
▁falta	-1978
▁inclu	-1979
▁perio	-1980
▁speci	-1981
▁LEADER	-1982
▁global	-1983
▁Finally	-1984
▁conclus	-1985
▁discuss	-1986
▁europea	-1987
▁oportun	-1988
▁respond	-1989
▁empresas	-1990
▁totalmente	-1991
▁cooperación	-1992
▁cooperation	-1993
Es	-1994
ft	-1995
bio	-1996
dos	-1997
igr	-1998
ura	-1999
uso	-2000
▁Mi	-2001
▁ec	-2002
ecer	-2003
ista	-2004
rael	-2005
▁Eso	-2006
▁cru	-2007
▁fue	-2008
▁lit	-2009
▁voy	-2010
demás	-2011
igual	-2012
▁look	-2013
▁main	-2014
▁ocup	-2015
▁compr	-2016
▁distr	-2017
▁given	-2018
▁major	-2019
▁mundo	-2020
▁otras	-2021
▁puedo	-2022
▁three	-2023
▁world	-2024
▁Además	-2025
▁change	-2026
▁compar	-2027
▁little	-2028
▁ningún	-2029
▁ámbito	-2030
adamente	-2031
▁legisla	-2032
▁reforma	-2033
▁whether	-2034
▁without	-2035
▁Asamblea	-2036
▁Quisiera	-2037
▁realidad	-2038
▁problemas	-2039
▁employment	-2040
▁instrument	-2041
ato	-2042
men	-2043
wor	-2044
▁bu	-2045
ades	-2046
ensa	-2047
ited	-2048
ways	-2049
▁All	-2050
▁Lis	-2051
▁cat	-2052
▁pel	-2053
onces	-2054
▁Trat	-2055
▁aten	-2056
encial	-2057
uestos	-2058
▁coher	-2059
▁Confer	-2060
▁consid	-2061
▁itself	-2062
▁normas	-2063
▁postal	-2064
▁resour	-2065
▁subsid	-2066
icamente	-2067
▁further	-2068
▁humanos	-2069
▁industry	-2070
▁nuestros	-2071
▁Comisaria	-2072
Ap	-2073
alf	-2074
aced	-2075
arlo	-2076
ased	-2077
avía	-2078
fica	-2079
iene	-2080
▁Let	-2081
▁Mar	-2082
▁dej	-2083
▁mes	-2084
▁mil	-2085
▁uno	-2086
▁acer	-2087
▁prac	-2088
▁será	-2089
▁tres	-2090
ientos	-2091
▁manif	-2092
▁razón	-2093
imiento	-2094
▁absolu	-2095
▁always	-2096
▁contam	-2097
▁criter	-2098
▁medida	-2099
▁though	-2100
ceptable	-2101
▁derecho	-2102
▁durante	-2103
▁continue	-2104
▁measures	-2105
▁resultado	-2106
▁protección	-2107
▁importantes	-2108
ep	-2109
▁'	-2110
ave	-2111
gún	-2112
ién	-2113
▁Ex	-2114
▁ce	-2115
▁ll	-2116
culo	-2117
hing	-2118
▁Una	-2119
▁aff	-2120
▁ano	-2121
▁hon	-2122
▁job	-2123
▁pen	-2124
ables	-2125
forme	-2126
▁anti	-2127
▁call	-2128
▁carr	-2129
▁conj	-2130
▁excl	-2131
▁mant	-2132
▁perf	-2133
▁repe	-2134
▁quite	-2135
▁señal	-2136
▁existe	-2137
▁simple	-2138
▁Gracias	-2139
▁materia	-2140
▁success	-2141
entemente	-2142
▁esencial	-2143
▁queremos	-2144
▁regional	-2145
▁legislation	-2146
CP	-2147
mí	-2148
áp	-2149
anc	-2150
ild	-2151
ner	-2152
por	-2153
til	-2154
ampo	-2155
coun	-2156
ilar	-2157
miti	-2158
▁ele	-2159
▁esf	-2160
▁hac	-2161
▁let	-2162
▁pay	-2163
▁tas	-2164
ister	-2165
quier	-2166
udget	-2167
urity	-2168
▁back	-2169
▁flex	-2170
▁grow	-2171
▁habr	-2172
▁hear	-2173
▁kind	-2174
▁step	-2175
▁unos	-2176
▁viol	-2177
ampoco	-2178
aremos	-2179
▁apoyo	-2180
▁ellos	-2181
▁grand	-2182
▁least	-2183
▁utili	-2184
▁Second	-2185
▁contro	-2186
▁nombre	-2187
▁another	-2188
▁debería	-2189
▁europeo	-2190
▁refiere	-2191
▁require	-2192
▁opportun	-2193
▁proposed	-2194
▁recursos	-2195
▁certainly	-2196
▁mentioned	-2197
▁enlargement	-2198
cas	-2199
ern	-2200
pel	-2201
ueb	-2202
echn	-2203
tric	-2204
▁cum	-2205
▁ped	-2206
▁ple	-2207
▁ráp	-2208
ather	-2209
istra	-2210
ordin	-2211
▁addi	-2212
▁argu	-2213
▁ayud	-2214
▁cost	-2215
▁help	-2216
▁ocas	-2217
▁priv	-2218
▁tard	-2219
gether	-2220
▁conci	-2221
▁level	-2222
▁super	-2223
▁terms	-2224
▁Israel	-2225
▁aspect	-2226
▁cierto	-2227
▁manera	-2228
▁recono	-2229
Aplausos	-2230
▁address	-2231
▁clearly	-2232
▁funcion	-2233
▁ninguna	-2234
▁project	-2235
▁palabras	-2236
▁político	-2237
▁progress	-2238
▁establish	-2239
▁ourselves	-2240
▁discussion	-2241
▁initiative	-2242
va	-2243
yr	-2244
arn	-2245
bin	-2246
gin	-2247
jos	-2248
old	-2249
▁10	-2250
▁Or	-2251
▁mí	-2252
abor	-2253
cuch	-2254
fety	-2255
isis	-2256
itos	-2257
main	-2258
oner	-2259
uros	-2260
▁ACP	-2261
▁Dec	-2262
▁Our	-2263
▁cir	-2264
▁zon	-2265
arias	-2266
icies	-2267
isión	-2268
▁Some	-2269
▁find	-2270
▁prác	-2271
▁role	-2272
termin	-2273
▁Desde	-2274
▁Hemos	-2275
▁admin	-2276
▁encon	-2277
▁papel	-2278
▁peace	-2279
▁poner	-2280
▁recom	-2281
▁sería	-2282
▁start	-2283
ability	-2284
▁better	-2285
▁cuanto	-2286
▁demand	-2287
▁pasado	-2288
▁proper	-2289
▁remain	-2290
▁solici	-2291
▁Tenemos	-2292
▁modific	-2293
▁nothing	-2294
▁profund	-2295
▁todavía	-2296
▁approach	-2297
▁policies	-2298
▁specific	-2299
▁statement	-2300
▁aplicación	-2301
AN	-2302
CI	-2303
day	-2304
ler	-2305
▁20	-2306
▁lí	-2307
▁nú	-2308
ions	-2309
▁Reg	-2310
▁Res	-2311
▁fac	-2312
▁les	-2313
▁paz	-2314
▁cent	-2315
▁esos	-2316
▁sigu	-2317
▁tras	-2318
encias	-2319
erable	-2320
▁chang	-2321
▁effec	-2322
▁estud	-2323
▁respe	-2324
▁share	-2325
▁short	-2326
▁tengo	-2327
▁cuenta	-2328
▁escuch	-2329
▁preven	-2330
▁sufici	-2331
taciones	-2332
▁aspecto	-2333
▁crucial	-2334
▁essenti	-2335
▁liberal	-2336
▁through	-2337
▁Gobierno	-2338
▁atención	-2339
▁determin	-2340
▁experien	-2341
▁millones	-2342
▁significa	-2343
▁government	-2344
EN	-2345
ño	-2346
App	-2347
alu	-2348
ano	-2349
ath	-2350
hes	-2351
igo	-2352
oub	-2353
rim	-2354
ump	-2355
cord	-2356
eful	-2357
work	-2358
ying	-2359
▁Kin	-2360
▁act	-2361
▁obv	-2362
frica	-2363
reaty	-2364
▁cele	-2365
▁exig	-2366
▁haya	-2367
▁less	-2368
▁talk	-2369
▁basis	-2370
▁conte	-2371
▁doing	-2372
▁igual	-2373
▁natur	-2374
▁ocurr	-2375
▁poten	-2376
▁revis	-2377
▁seems	-2378
▁state	-2379
tructur	-2380
▁become	-2381
▁enough	-2382
▁examin	-2383
▁puntos	-2384
▁seguir	-2385
Applause	-2386
▁aprueba	-2387
▁conform	-2388
▁encontr	-2389
▁mayoría	-2390
▁interest	-2391
▁servicio	-2392
▁difficult	-2393
▁following	-2394
▁administra	-2395
▁responsibility	-2396
óg	-2397
ór	-2398
ged	-2399
ges	-2400
hip	-2401
lav	-2402
pre	-2403
pro	-2404
▁13	-2405
▁Do	-2406
▁Er	-2407
▁Of	-2408
▁Su	-2409
▁ty	-2410
ceed	-2411
irme	-2412
nock	-2413
zado	-2414
▁One	-2415
▁ase	-2416
▁cin	-2417
▁den	-2418
▁dir	-2419
▁era	-2420
▁flo	-2421
▁núm	-2422
▁yet	-2423
ences	-2424
mento	-2425
ticas	-2426
▁Para	-2427
▁avan	-2428
▁dang	-2429
▁enti	-2430
▁llam	-2431
▁vida	-2432
▁alcan	-2433
▁appli	-2434
▁reduc	-2435
▁total	-2436
▁vista	-2437
iamente	-2438
▁Solana	-2439
▁behalf	-2440
▁compan	-2441
▁critic	-2442
▁esfuer	-2443
▁longer	-2444
▁presup	-2445
▁recogn	-2446
▁Informe	-2447
▁Minutes	-2448
▁adoptar	-2449
▁colegas	-2450
▁europeos	-2451
▁previous	-2452
▁amendment	-2453
▁diputados	-2454
▁essential	-2455
▁environmental	-2456
ej	-2457
éc	-2458
gar	-2459
irm	-2460
rov	-2461
ued	-2462
uel	-2463
▁19	-2464
▁Ni	-2465
▁ju	-2466
▁éx	-2467
fice	-2468
ived	-2469
onde	-2470
onia	-2471
ules	-2472
ífic	-2473
▁did	-2474
▁jud	-2475
▁red	-2476
▁rev	-2477
▁ris	-2478
erous	-2479
round	-2480
▁circ	-2481
▁dice	-2482
▁enor	-2483
▁guer	-2484
▁once	-2485
▁past	-2486
▁post	-2487
▁show	-2488
▁used	-2489
▁buena	-2490
▁chall	-2491
▁frame	-2492
▁indic	-2493
▁joint	-2494
▁nueva	-2495
▁recha	-2496
▁separ	-2497
▁éxito	-2498
ambient	-2499
cionado	-2500
tention	-2501
▁accoun	-2502
▁aument	-2503
▁conver	-2504
▁correc	-2505
▁defend	-2506
▁efecto	-2507
▁effort	-2508
▁hablar	-2509
▁indeed	-2510
▁making	-2511
▁manten	-2512
▁medios	-2513
▁Kinnock	-2514
▁garanti	-2515
▁justice	-2516
▁resulta	-2517
▁segunda	-2518
▁Secondly	-2519
▁ambiente	-2520
▁entonces	-2521
▁security	-2522
▁together	-2523
▁Committee	-2524
▁realmente	-2525
▁resources	-2526
▁servicios	-2527
▁subsidiar	-2528
▁diferentes	-2529
▁condiciones	-2530
▁conformidad	-2531
▁medioambient	-2532
La	-2533
OT	-2534
RE	-2535
ala	-2536
bod	-2537
gol	-2538
▁14	-2539
▁Ar	-2540
▁cl	-2541
ably	-2542
edad	-2543
▁Ber	-2544
▁EUR	-2545
▁Ser	-2546
▁VOT	-2547
▁amb	-2548
▁art	-2549
▁him	-2550
▁sum	-2551
▁uni	-2552
ading	-2553
ducir	-2554
eless	-2555
iness	-2556
thers	-2557
▁1997	-2558
▁Acta	-2559
▁cabo	-2560
▁difí	-2561
▁encu	-2562
▁esas	-2563
▁hard	-2564
▁lack	-2565
▁open	-2566
▁oper	-2567
▁text	-2568
bility	-2569
▁2000.	-2570
▁Estoy	-2571
▁adecu	-2572
▁after	-2573
▁largo	-2574
▁month	-2575
▁sense	-2576
▁since	-2577
▁suced	-2578
▁techn	-2579
▁temas	-2580
▁Portug	-2581
▁Treaty	-2582
▁celebr	-2583
▁commun	-2584
▁concep	-2585
▁número	-2586
▁period	-2587
▁rather	-2588
▁record	-2589
▁safety	-2590
▁conflic	-2591
▁express	-2592
▁provide	-2593
▁approved	-2594
▁comments	-2595
▁internal	-2596
▁services	-2597
▁framework	-2598
▁industria	-2599
▁management	-2600
▁protection	-2601
ió	-2602
Por	-2603
ile	-2604
its	-2605
vid	-2606
zas	-2607
zos	-2608
▁Ir	-2609
▁fu	-2610
▁id	-2611
atro	-2612
echa	-2613
fort	-2614
iate	-2615
pués	-2616
resp	-2617
stro	-2618
tern	-2619
▁200	-2620
▁her	-2621
▁top	-2622
ieren	-2623
ither	-2624
tical	-2625
wards	-2626
▁doub	-2627
▁down	-2628
▁feel	-2629
▁luch	-2630
▁ries	-2631
▁sure	-2632
vement	-2633
▁Angol	-2634
▁Todos	-2635
▁begin	-2636
▁cinco	-2637
▁comes	-2638
▁demás	-2639
▁extra	-2640
▁fully	-2641
▁plazo	-2642
▁solid	-2643
▁texto	-2644
▁votar	-2645
icación	-2646
ulation	-2647
▁Social	-2648
▁budget	-2649
▁depend	-2650
▁fondos	-2651
▁permit	-2652
▁siendo	-2653
▁última	-2654
▁aliment	-2655
▁capital	-2656
▁consigu	-2657
▁economy	-2658
▁interés	-2659
▁pública	-2660
▁ustedes	-2661
tivamente	-2662
▁anterior	-2663
▁distribu	-2664
▁committee	-2665
▁felicitar	-2666
▁transport	-2667
▁importance	-2668
▁presentado	-2669
▁necesitamos	-2670
▁particularly	-2671
▁especialmente	-2672
ja	-2673
ys	-2674
-01	-2675
199	-2676
ann	-2677
tig	-2678
álo	-2679
▁15	-2680
▁hu	-2681
▁sm	-2682
▁sp	-2683
ator	-2684
icas	-2685
igra	-2686
imes	-2687
▁Cor	-2688
▁How	-2689
▁Tur	-2690
▁Why	-2691
▁hom	-2692
ected	-2693
iedad	-2694
ástro	-2695
▁Brus	-2696
▁Quer	-2697
▁anal	-2698
▁apar	-2699
▁capa	-2700
▁conv	-2701
▁cómo	-2702
▁five	-2703
▁full	-2704
▁life	-2705
▁pros	-2706
▁tour	-2707
▁Ésta	-2708
▁ésta	-2709
acción	-2710
▁Tobin	-2711
▁adopt	-2712
▁autom	-2713
▁aware	-2714
▁cumpl	-2715
▁deseo	-2716
▁estoy	-2717
▁excel	-2718
▁gener	-2719
▁gente	-2720
▁inves	-2721
▁liber	-2722
▁local	-2723
▁makes	-2724
▁misma	-2725
▁peque	-2726
▁pueda	-2727
▁quien	-2728
▁thing	-2729
theless	-2730
▁cambio	-2731
▁commit	-2732
▁costes	-2733
▁defini	-2734
▁excell	-2735
▁histor	-2736
▁puesto	-2737
▁reject	-2738
▁Estamos	-2739
▁Members	-2740
▁Tratado	-2741
▁asuntos	-2742
▁hacerlo	-2743
▁matters	-2744
▁talking	-2745
▁working	-2746
acionales	-2747
▁addition	-2748
▁economía	-2749
▁contradic	-2750
▁interests	-2751
▁proyectos	-2752
▁decisiones	-2753
▁programmes	-2754
▁resultados	-2755
▁Presidencia	-2756
▁comunitaria	-2757
▁information	-2758
▁preocupación	-2759
AL	-2760
uf	-2761
aps	-2762
cau	-2763
has	-2764
ika	-2765
ium	-2766
oss	-2767
ret	-2768
uge	-2769
▁ba	-2770
alls	-2771
ined	-2772
ondo	-2773
tend	-2774
▁Hul	-2775
▁Lib	-2776
▁day	-2777
▁err	-2778
▁quo	-2779
▁vig	-2780
ecuen	-2781
entro	-2782
unque	-2783
álogo	-2784
▁appe	-2785
▁base	-2786
▁cono	-2787
▁item	-2788
▁nive	-2789
▁play	-2790
▁sean	-2791
▁tare	-2792
▁unas	-2793
▁upon	-2794
fortun	-2795
▁Direc	-2796
▁Erika	-2797
▁casos	-2798
▁decid	-2799
▁desem	-2800
▁efica	-2801
▁evalu	-2802
▁exact	-2803
▁funds	-2804
▁hacia	-2805
▁labor	-2806
▁large	-2807
▁sigue	-2808
▁veces	-2809
osición	-2810
stances	-2811
▁Angola	-2812
▁Hulten	-2813
▁cuatro	-2814
▁interr	-2815
▁modern	-2816
▁others	-2817
▁raised	-2818
▁aceptar	-2819
▁difícil	-2820
▁million	-2821
▁natural	-2822
▁perspec	-2823
ecuencias	-2824
▁business	-2825
▁catástro	-2826
▁contamin	-2827
▁evidente	-2828
▁independ	-2829
▁nuestras	-2830
▁relación	-2831
▁attention	-2832
▁contrario	-2833
▁excellent	-2834
▁programas	-2835
▁provision	-2836
▁legislación	-2837
▁congratulate	-2838
▁consecuencias	-2839
Cu	-2840
pi	-2841
-07	-2842
ief	-2843
pos	-2844
tac	-2845
zco	-2846
▁UR	-2847
▁dr	-2848
▁sc	-2849
alog	-2850
ards	-2851
ling	-2852
ness	-2853
omos	-2854
ters	-2855
íodo	-2856
▁Bal	-2857
▁Can	-2858
▁Med	-2859
▁arr	-2860
▁dam	-2861
▁esp	-2862
▁fra	-2863
▁ina	-2864
▁sto	-2865
▁tre	-2866
▁ven	-2867
mitir	-2868
▁Cuba	-2869
▁Inde	-2870
▁Sólo	-2871
▁empe	-2872
▁lead	-2873
▁mean	-2874
▁paso	-2875
▁sens	-2876
alogue	-2877
ciendo	-2878
imismo	-2879
▁Estos	-2880
▁Maced	-2881
▁afect	-2882
▁grupo	-2883
▁heard	-2884
▁incor	-2885
▁never	-2886
▁rules	-2887
olución	-2888
▁Haider	-2889
▁acción	-2890
▁asegur	-2891
▁crimin	-2892
▁guerra	-2893
▁intend	-2894
▁lament	-2895
▁peligr	-2896
▁precau	-2897
▁tercer	-2898
▁account	-2899
▁conclud	-2900
▁debates	-2901
▁democrá	-2902
▁monitor	-2903
▁perfect	-2904
▁período	-2905
▁reasons	-2906
▁actually	-2907
▁aspectos	-2908
▁comisión	-2909
▁dialogue	-2910
▁investig	-2911
▁positivo	-2912
▁cualquier	-2913
▁effective	-2914
▁compromiso	-2915
▁establecer	-2916
▁garantizar	-2917
▁objectives	-2918
▁opportunity	-2919
▁posibilidad	-2920
▁consiguiente	-2921
▁transparencia	-2922
8,	-2923
UAL	-2924
ars	-2925
cur	-2926
ger	-2927
oth	-2928
rán	-2929
son	-2930
uto	-2931
vil	-2932
▁25	-2933
▁Pe	-2934
▁má	-2935
crib	-2936
eric	-2937
haps	-2938
ines	-2939
ists	-2940
onse	-2941
orth	-2942
ties	-2943
▁ahí	-2944
▁gas	-2945
arnos	-2946
culos	-2947
entra	-2948
remos	-2949
veral	-2950
ácter	-2951
ículo	-2952
▁Fund	-2953
▁With	-2954
▁four	-2955
▁guar	-2956
▁oral	-2957
▁pueb	-2958
▁rece	-2959
▁type	-2960
uestra	-2961
▁Permí	-2962
▁asked	-2963
▁comer	-2964
▁datos	-2965
▁espec	-2966
▁estab	-2967
▁floor	-2968
▁force	-2969
▁found	-2970
▁impos	-2971
▁indiv	-2972
▁often	-2973
▁vamos	-2974
▁agrade	-2975
▁alguna	-2976
▁colega	-2977
▁conced	-2978
▁conten	-2979
▁crisis	-2980
▁elimin	-2981
▁fisher	-2982
▁podría	-2983
▁simply	-2984
▁Firstly	-2985
▁cambios	-2986
▁diálogo	-2987
▁grandes	-2988
▁llegado	-2989
▁restric	-2990
▁results	-2991
▁strateg	-2992
▁towards	-2993
▁turismo	-2994
▁valores	-2995
tructural	-2996
▁carácter	-2997
▁guarante	-2998
▁justicia	-2999
▁projects	-3000
▁regiones	-3001
▁sociedad	-3002
▁democracy	-3003
▁claramente	-3004
▁referencia	-3005
▁international	-3006
▁observaciones	-3007
FR	-3008
Se	-3009
sa	-3010
als	-3011
col	-3012
iet	-3013
ily	-3014
ivo	-3015
ute	-3016
ños	-3017
▁Pa	-3018
1999	-3019
5-01	-3020
alta	-3021
bern	-3022
bres	-3023
duce	-3024
ibun	-3025
icul	-3026
iste	-3027
uary	-3028
áles	-3029
▁Are	-3030
▁Car	-3031
▁Der	-3032
▁abr	-3033
▁enc	-3034
▁fis	-3035
▁mor	-3036
tanme	-3037
umbre	-3038
usión	-3039
▁1999	-3040
▁cred	-3041
▁estr	-3042
▁fail	-3043
▁hora	-3044
▁orig	-3045
▁pido	-3046
▁pien	-3047
▁toma	-3048
▁unac	-3049
▁Éste	-3050
ecesit	-3051
▁Algun	-3052
▁Niels	-3053
▁Vitor	-3054
▁bring	-3055
▁fondo	-3056
▁grave	-3057
▁meses	-3058
▁pollu	-3059
▁small	-3060
▁tarde	-3061
▁third	-3062
▁voted	-3063
alestin	-3064
amental	-3065
▁Conven	-3066
▁actuar	-3067
▁explic	-3068
▁impres	-3069
▁integr	-3070
▁intent	-3071
▁appropr	-3072
▁central	-3073
▁contain	-3074
▁corresp	-3075
▁current	-3076
▁existen	-3077
▁incluso	-3078
▁progres	-3079
▁similar	-3080
▁tourism	-3081
▁competen	-3082
▁dificult	-3083
▁included	-3084
▁interior	-3085
▁introduc	-3086
▁Macedonia	-3087
▁authority	-3088
▁companies	-3089
▁excelente	-3090
▁objective	-3091
▁democratic	-3092
▁Conferencia	-3093
▁transparency	-3094
).	-3095
AT	-3096
ait	-3097
hic	-3098
yen	-3099
écn	-3100
▁30	-3101
▁EQ	-3102
▁wr	-3103
alth	-3104
ches	-3105
fied	-3106
▁11.	-3107
▁Mon	-3108
▁dic	-3109
▁gre	-3110
▁inm	-3111
▁mej	-3112
▁uso	-3113
▁vir	-3114
ibles	-3115
ining	-3116
▁Will	-3117
▁dise	-3118
▁draw	-3119
▁each	-3120
▁ejer	-3121
▁enfo	-3122
▁haga	-3123
▁jobs	-3124
▁note	-3125
▁seen	-3126
▁true	-3127
▁técn	-3128
hesión	-3129
▁EQUAL	-3130
▁acces	-3131
▁costs	-3132
▁doubt	-3133
▁euros	-3134
▁minor	-3135
▁nivel	-3136
▁reach	-3137
▁semej	-3138
▁tomar	-3139
▁valor	-3140
▁vehic	-3141
ultural	-3142
▁accord	-3143
▁afecta	-3144
▁emphas	-3145
▁propio	-3146
▁reflex	-3147
▁strong	-3148
▁threat	-3149
▁transp	-3150
▁volver	-3151
idamente	-3152
▁Necesit	-3153
▁calidad	-3154
▁carried	-3155
▁efforts	-3156
▁esperan	-3157
▁individ	-3158
▁pleased	-3159
▁produce	-3160
▁regions	-3161
▁session	-3162
▁solidar	-3163
▁Queremos	-3164
▁construc	-3165
▁hablando	-3166
▁material	-3167
▁proyecto	-3168
▁práctica	-3169
▁dangerous	-3170
▁encuentra	-3171
▁parlament	-3172
▁standards	-3173
fortunately	-3174
▁aprobación	-3175
▁democracia	-3176
▁especially	-3177
▁nacionales	-3178
▁legislative	-3179
▁observación	-3180
▁institutions	-3181
▁intervención	-3182
▁unacceptable	-3183
NT	-3184
ON	-3185
SE	-3186
be	-3187
ij	-3188
mp	-3189
wh	-3190
ACI	-3191
BAN	-3192
REG	-3193
bon	-3194
bra	-3195
cos	-3196
dic	-3197
ely	-3198
ilo	-3199
ira	-3200
reg	-3201
▁Fl	-3202
▁Ne	-3203
Cómo	-3204
NTER	-3205
ants	-3206
ibut	-3207
mark	-3208
ocus	-3209
olut	-3210
ológ	-3211
tido	-3212
ught	-3213
ugos	-3214
▁Rec	-3215
▁bar	-3216
▁din	-3217
▁due	-3218
▁fre	-3219
▁pow	-3220
▁suf	-3221
1999)	-3222
isten	-3223
ticos	-3224
titud	-3225
▁clas	-3226
▁dado	-3227
▁espa	-3228
▁face	-3229
▁inst	-3230
▁insu	-3231
▁keep	-3232
▁move	-3233
▁nota	-3234
▁pass	-3235
▁sust	-3236
▁task	-3237
▁vehí	-3238
▁12.00	-3239
▁INTER	-3240
▁URBAN	-3241
▁aclar	-3242
▁apply	-3243
▁brief	-3244
▁comen	-3245
▁crear	-3246
▁dirig	-3247
▁enter	-3248
▁estim	-3249
▁excep	-3250
▁habrá	-3251
▁máxim	-3252
▁penal	-3253
▁único	-3254
▁Estado	-3255
▁Indeed	-3256
▁Intern	-3257
▁Lisbon	-3258
▁Theato	-3259
▁aunque	-3260
▁govern	-3261
▁growth	-3262
▁months	-3263
▁motivo	-3264
▁negoti	-3265
▁perman	-3266
▁taking	-3267
▁Nielson	-3268
▁absolut	-3269
▁consecu	-3270
▁obvious	-3271
▁preciso	-3272
▁procede	-3273
▁several	-3274
▁suspend	-3275
▁tampoco	-3276
▁INTERREG	-3277
▁artículo	-3278
▁conjunto	-3279
▁consumid	-3280
▁libertad	-3281
▁necesita	-3282
▁sesiones	-3283
▁currently	-3284
▁necesaria	-3285
▁realizado	-3286
▁referirme	-3287
▁Presidency	-3288
▁absolutely	-3289
▁parliament	-3290
▁reglamento	-3291
▁appropriate	-3292
▁comunitario	-3293
▁comunicación	-3294
▁participación	-3295
▁implementation	-3296
".	-3297
.)	-3298
40	-3299
DA	-3300
PE	-3301
ár	-3302
aré	-3303
ats	-3304
boa	-3305
bro	-3306
gos	-3307
ick	-3308
iva	-3309
mer	-3310
pan	-3311
ule	-3312
▁II	-3313
▁Mo	-3314
▁il	-3315
▁ph	-3316
edom	-3317
enge	-3318
ging	-3319
guro	-3320
ians	-3321
ners	-3322
ples	-3323
sted	-3324
tail	-3325
urso	-3326
▁Mit	-3327
▁ago	-3328
▁cla	-3329
▁eas	-3330
▁jus	-3331
▁old	-3332
▁rig	-3333
cidad	-3334
ength	-3335
entle	-3336
ffici	-3337
ianza	-3338
landa	-3339
legal	-3340
light	-3341
onder	-3342
sific	-3343
tamos	-3344
tible	-3345
▁date	-3346
▁desp	-3347
▁dist	-3348
▁free	-3349
▁hold	-3350
▁list	-3351
▁mind	-3352
▁plen	-3353
▁reac	-3354
▁reun	-3355
▁segu	-3356
▁trad	-3357
ibunal	-3358
rovica	-3359
▁acaba	-3360
▁amena	-3361
▁build	-3362
▁clara	-3363
▁const	-3364
▁estat	-3365
▁focus	-3366
▁luego	-3367
▁manuf	-3368
▁promo	-3369
▁saber	-3370
▁serán	-3371
▁times	-3372
ourable	-3373
▁acerca	-3374
▁assist	-3375
▁ayudas	-3376
▁coment	-3377
▁confid	-3378
▁dentro	-3379
▁destin	-3380
▁estado	-3381
▁expect	-3382
▁gentle	-3383
▁hechos	-3384
▁implic	-3385
▁lograr	-3386
▁motion	-3387
▁nature	-3388
▁propia	-3389
▁quiere	-3390
▁regret	-3391
▁reserv	-3392
▁retras	-3393
▁sistem	-3394
▁Irlanda	-3395
▁changes	-3396
▁coordin	-3397
▁enfoque	-3398
▁proceed	-3399
▁product	-3400
▁quality	-3401
▁request	-3402
▁society	-3403
▁totally	-3404
▁últimos	-3405
ciaciones	-3406
▁Minister	-3407
▁communic	-3408
▁criminal	-3409
▁europeas	-3410
▁incorpor	-3411
▁interpre	-3412
▁nacional	-3413
▁peligros	-3414
▁solución	-3415
▁challenge	-3416
▁confianza	-3417
▁estructur	-3418
▁gentlemen	-3419
▁solamente	-3420
▁stability	-3421
▁Amendments	-3422
▁constituye	-3423
▁deberíamos	-3424
▁principios	-3425
▁regulation	-3426
▁themselves	-3427
▁estabilidad	-3428
▁oportunidad	-3429
▁responsible	-3430
▁dificultades	-3431
▁naturalmente	-3432
▁internacional	-3433
▁medioambiental	-3434
80	-3435
ES	-3436
uv	-3437
ír	-3438
öm	-3439
▁i	-3440
ama	-3441
bil	-3442
cin	-3443
cus	-3444
ita	-3445
ron	-3446
tru	-3447
▁Co	-3448
▁sé	-3449
-000	-3450
-002	-3451
aces	-3452
aron	-3453
mend	-3454
oney	-3455
over	-3456
tial	-3457
tröm	-3458
unca	-3459
unci	-3460
▁Hab	-3461
▁Ire	-3462
▁Pol	-3463
▁aim	-3464
▁bro	-3465
▁dim	-3466
▁ear	-3467
▁ine	-3468
▁loc	-3469
▁lot	-3470
▁rad	-3471
▁rap	-3472
▁tab	-3473
▁tar	-3474
▁ést	-3475
5-002	-3476
adies	-3477
asing	-3478
cicio	-3479
ingle	-3480
istic	-3481
rimin	-3482
ticle	-3483
zambi	-3484
▁1998	-3485
▁Noso	-3486
▁Prim	-3487
▁Todo	-3488
▁adap	-3489
▁adel	-3490
▁allí	-3491
▁best	-3492
▁cosa	-3493
▁days	-3494
▁días	-3495
▁eleg	-3496
▁entr	-3497
▁food	-3498
▁func	-3499
▁ocur	-3500
▁pens	-3501
▁read	-3502
▁ship	-3503
▁soon	-3504
▁turn	-3505
/1999)	-3506
arious	-3507
gubern	-3508
▁Malta	-3509
▁accid	-3510
▁aguas	-3511
▁algún	-3512
▁basic	-3513
▁categ	-3514
▁facil	-3515
▁money	-3516
▁ought	-3517
▁pesca	-3518
▁relev	-3519
▁resum	-3520
▁views	-3521
▁Lisboa	-3522
▁camino	-3523
▁condem	-3524
▁crític	-3525
▁detail	-3526
▁dispon	-3527
▁ecolog	-3528
▁foment	-3529
▁invest	-3530
▁mismos	-3531
▁needed	-3532
▁nuevos	-3533
▁riesgo	-3534
▁saying	-3535
▁wonder	-3536
imientos	-3537
zambique	-3538
▁Ireland	-3539
▁comment	-3540
▁compens	-3541
▁concili	-3542
▁conserv	-3543
▁contemp	-3544
▁empezar	-3545
▁measure	-3546
▁speaker	-3547
▁special	-3548
▁systems	-3549
▁Nosotros	-3550
▁Vitorino	-3551
▁asegurar	-3552
▁complete	-3553
▁happened	-3554
▁jurídica	-3555
▁jurídico	-3556
▁partners	-3557
▁politics	-3558
▁relacion	-3559
▁solution	-3560
▁Mitrovica	-3561
▁conseguir	-3562
▁dirección	-3563
▁direction	-3564
▁económico	-3565
▁ejercicio	-3566
▁esfuerzos	-3567
▁intereses	-3568
▁necesidad	-3569
▁potential	-3570
▁relations	-3571
▁technical	-3572
▁Permítanme	-3573
▁catástrofe	-3574
▁conditions	-3575
▁Necesitamos	-3576
▁implemented	-3577
▁absolutamente	-3578
▁instituciones	-3579
30	-3580
IC	-3581
No	-3582
hr	-3583
Hay	-3584
air	-3585
oga	-3586
tly	-3587
ula	-3588
ypr	-3589
▁18	-3590
▁AI	-3591
▁dé	-3592
▁mé	-3593
adie	-3594
asta	-3595
ects	-3596
enov	-3597
erve	-3598
gica	-3599
ires	-3600
leag	-3601
less	-3602
onte	-3603
ques	-3604
reci	-3605
side	-3606
yrne	-3607
▁Hoy	-3608
▁Nor	-3609
▁Van	-3610
▁Yet	-3611
▁cut	-3612
▁imm	-3613
▁ing	-3614
▁key	-3615
▁mal	-3616
▁pat	-3617
▁wee	-3618
actur	-3619
estar	-3620
graph	-3621
iable	-3622
istro	-3623
onter	-3624
▁Cypr	-3625
▁Debe	-3626
▁When	-3627
▁añad	-3628
▁desa	-3629
▁líne	-3630
▁nega	-3631
▁risk	-3632
▁supp	-3633
▁voto	-3634
▁zona	-3635
endido	-3636
mentos	-3637
▁Byrne	-3638
▁Estas	-3639
▁Tiene	-3640
▁Yugos	-3641
▁amoun	-3642
▁cases	-3643
▁delay	-3644
▁draft	-3645
▁might	-3646
▁prote	-3647
▁raise	-3648
▁recib	-3649
▁renov	-3650
▁reply	-3651
▁selec	-3652
▁tarea	-3653
▁Report	-3654
▁United	-3655
▁applic	-3656
▁damage	-3657
▁divers	-3658
▁during	-3659
▁energy	-3660
▁fiscal	-3661
▁llevar	-3662
▁myself	-3663
▁presid	-3664
▁provid	-3665
▁región	-3666
▁single	-3667
▁sustan	-3668
▁termin	-3669
fficient	-3670
▁aprobar	-3671
▁condemn	-3672
▁consequ	-3673
▁context	-3674
▁encoura	-3675
▁freedom	-3676
▁greater	-3677
▁mencion	-3678
▁radical	-3679
▁remains	-3680
▁thought	-3681
▁underta	-3682
▁univers	-3683
ablemente	-3684
▁formular	-3685
▁mantener	-3686
▁personal	-3687
▁postales	-3688
▁response	-3689
▁comunitar	-3690
▁contenido	-3691
▁discrimin	-3692
▁económica	-3693
▁intention	-3694
▁interrump	-3695
▁políticos	-3696
▁recognise	-3697
▁reconocer	-3698
▁Mozambique	-3699
▁completely	-3700
▁documentos	-3701
▁intervenir	-3702
▁manufactur	-3703
▁representa	-3704
▁siguientes	-3705
▁successful	-3706
▁crecimiento	-3707
▁declaración	-3708
▁información	-3709
▁regulations	-3710
gubernamental	-3711
▁communication	-3712
.5	-3713
2,	-3714
7,	-3715
ya	-3716
abr	-3717
aso	-3718
che	-3719
ibr	-3720
mid	-3721
qué	-3722
tur	-3723
udo	-3724
ánd	-3725
íti	-3726
ñar	-3727
▁50	-3728
▁Ag	-3729
▁Fe	-3730
▁Mc	-3731
anim	-3732
atur	-3733
cios	-3734
ecen	-3735
idel	-3736
ield	-3737
isch	-3738
ival	-3739
medi	-3740
ourt	-3741
upos	-3742
▁Dur	-3743
▁Les	-3744
▁Ver	-3745
▁bal	-3746
▁bur	-3747
▁cuo	-3748
▁dev	-3749
▁giv	-3750
▁sac	-3751
▁sci	-3752
▁try	-3753
▁vac	-3754
5-000	-3755
embre	-3756
ilibr	-3757
lavia	-3758
tiene	-3759
tific	-3760
▁More	-3761
▁acab	-3762
▁aleg	-3763
▁cars	-3764
▁digo	-3765
▁esté	-3766
▁gave	-3767
▁goes	-3768
▁huge	-3769
▁inco	-3770
▁left	-3771
▁mess	-3772
▁mund	-3773
▁poss	-3774
▁reto	-3775
▁stud	-3776
▁tell	-3777
▁urge	-3778
▁vuel	-3779
ensión	-3780
mitted	-3781
quiera	-3782
tation	-3783
▁China	-3784
▁Court	-3785
▁Monti	-3786
▁Tengo	-3787
▁Third	-3788
▁Walls	-3789
▁abord	-3790
▁alone	-3791
▁deleg	-3792
▁donde	-3793
▁fight	-3794
▁grant	-3795
▁incom	-3796
▁lejos	-3797
▁model	-3798
▁quick	-3799
▁razon	-3800
▁retir	-3801
▁somos	-3802
▁struc	-3803
▁turno	-3804
▁volun	-3805
vemente	-3806
▁Africa	-3807
▁Cumbre	-3808
▁Cyprus	-3809
▁Schmid	-3810
▁altern	-3811
▁conduc	-3812
▁conjun	-3813
▁defici	-3814
▁elabor	-3815
▁events	-3816
▁groups	-3817
▁habido	-3818
▁health	-3819
▁identi	-3820
▁objeto	-3821
▁partes	-3822
▁propor	-3823
▁sugges	-3824
▁values	-3825
▁votado	-3826
▁Article	-3827
▁applies	-3828
▁careful	-3829
▁cultura	-3830
▁culture	-3831
▁después	-3832
▁expecta	-3833
▁limited	-3834
▁ocasión	-3835
▁primero	-3836
▁propone	-3837
▁protect	-3838
▁reforms	-3839
▁sabemos	-3840
▁benefici	-3841
▁comenzar	-3842
▁equilibr	-3843
▁everyone	-3844
▁function	-3845
▁impuesto	-3846
▁involved	-3847
▁official	-3848
▁permitir	-3849
▁positiva	-3850
▁pregunto	-3851
▁priority	-3852
▁realizar	-3853
▁relation	-3854
▁requires	-3855
▁sociales	-3856
▁strength	-3857
▁supuesto	-3858
▁territor	-3859
▁utilizar	-3860
▁vehicles	-3861
government	-3862
▁Wallström	-3863
▁criterios	-3864
▁documents	-3865
▁formación	-3866
▁happening	-3867
▁liability	-3868
▁mencionar	-3869
▁planteado	-3870
▁preguntar	-3871
▁procedure	-3872
▁recommend	-3873
▁regarding	-3874
▁responder	-3875
▁vehículos	-3876
▁Government	-3877
▁confidence	-3878
▁financiero	-3879
▁honourable	-3880
▁individual	-3881
▁relaciones	-3882
▁suficiente	-3883
governmental	-3884
▁actualmente	-3885
▁inaceptable	-3886
▁contribution	-3887
▁precisamente	-3888
▁consideration	-3889
GC	-3890
ea	-3891
eo	-3892
ps	-3893
ín	-3894
▁,	-3895
...	-3896
arm	-3897
bet	-3898
bia	-3899
did	-3900
elo	-3901
imo	-3902
ité	-3903
lad	-3904
pes	-3905
pol	-3906
ude	-3907
uls	-3908
wed	-3909
yes	-3910
ído	-3911
▁40	-3912
▁Li	-3913
▁bl	-3914
▁fá	-3915
bour	-3916
cies	-3917
ecut	-3918
emás	-3919
inki	-3920
ipre	-3921
long	-3922
oint	-3923
sels	-3924
tice	-3925
zada	-3926
ónde	-3927
▁Dan	-3928
▁Gre	-3929
▁IGC	-3930
▁Sus	-3931
▁aud	-3932
▁bod	-3933
▁cod	-3934
▁dig	-3935
▁mín	-3936
▁rep	-3937
▁spo	-3938
▁yes	-3939
arter	-3940
aties	-3941
ators	-3942
cidos	-3943
dible	-3944
eness	-3945
iores	-3946
ising	-3947
stitu	-3948
▁Hels	-3949
▁Here	-3950
▁Only	-3951
▁clim	-3952
▁conc	-3953
▁data	-3954
▁enfr	-3955
▁hubi	-3956
▁norm	-3957
▁peti	-3958
▁proh	-3959
▁rene	-3960
▁sort	-3961
▁term	-3962
▁éste	-3963
▁útil	-3964
cional	-3965
tained	-3966
unidad	-3967
ustría	-3968
venida	-3969
▁11.00	-3970
▁State	-3971
▁abier	-3972
▁dejar	-3973
▁event	-3974
▁había	-3975
▁light	-3976
▁mensa	-3977
▁minim	-3978
▁mucha	-3979
▁norma	-3980
▁pasar	-3981
▁pedir	-3982
▁pesar	-3983
▁quién	-3984
▁reper	-3985
▁salud	-3986
▁stage	-3987
▁toler	-3988
▁unemp	-3989
▁única	-3990
▁Chipre	-3991
▁Fondos	-3992
▁Porque	-3993
▁además	-3994
▁behind	-3995
▁candid	-3996
▁circun	-3997
▁desire	-3998
▁effect	-3999
▁entire	-4000
▁exclus	-4001
▁having	-4002
▁orador	-4003
▁podido	-4004
▁preced	-4005
▁precio	-4006
▁promis	-4007
▁prueba	-4008
▁recent	-4009
▁repeat	-4010
▁seguro	-4011
▁suffer	-4012
▁terror	-4013
▁tratar	-4014
▁unanim	-4015
▁useful	-4016
▁wishes	-4017
tructura	-4018
▁Tampoco	-4019
▁austría	-4020
▁colabor	-4021
▁colleag	-4022
▁cumplir	-4023
▁hacemos	-4024
▁improve	-4025
▁incoher	-4026
▁miembro	-4027
▁quickly	-4028
▁razones	-4029
▁señalar	-4030
eraciones	-4031
▁Helsinki	-4032
▁Moreover	-4033
▁Portugal	-4034
▁Tribunal	-4035
▁achieved	-4036
▁criteria	-4037
▁cultural	-4038
▁eficacia	-4039
▁insufici	-4040
▁majority	-4041
▁manifies	-4042
▁prepared	-4043
▁received	-4044
▁referred	-4045
▁reformas	-4046
▁expressed	-4047
▁fisheries	-4048
▁practical	-4049
▁precisely	-4050
▁siguiente	-4051
▁solicitud	-4052
▁Yugoslavia	-4053
▁actualidad	-4054
▁compromise	-4055
▁everything	-4056
▁increasing	-4057
▁priorities	-4058
▁encontramos	-4059
▁rápidamente	-4060
▁negotiations	-4061
▁subsidiarity	-4062
▁fundamentales	-4063
▁preocupaciones	-4064
na	-4065
yo	-4066
▁x	-4067
ass	-4068
dra	-4069
enz	-4070
eza	-4071
gua	-4072
lum	-4073
osp	-4074
rup	-4075
zan	-4076
▁45	-4077
▁EE	-4078
▁él	-4079
ONES	-4080
ands	-4081
arán	-4082
bles	-4083
boda	-4084
gest	-4085
inty	-4086
ises	-4087
line	-4088
ogau	-4089
ourn	-4090
paña	-4091
roll	-4092
term	-4093
uede	-4094
▁Sum	-4095
▁Swo	-4096
▁ale	-4097
▁blo	-4098
▁cop	-4099
▁pur	-4100
▁rem	-4101
▁she	-4102
▁sil	-4103
▁six	-4104
▁sou	-4105
▁vic	-4106
▁viv	-4107
▁von	-4108
▁Ésa	-4109
erman	-4110
iados	-4111
ition	-4112
izado	-4113
orenz	-4114
tidad	-4115
tious	-4116
vanta	-4117
ífico	-4118
▁Barn	-4119
▁Brit	-4120
▁Such	-4121
▁Time	-4122
▁VOTE	-4123
▁anim	-4124
▁away	-4125
▁bear	-4126
▁fabr	-4127
▁fair	-4128
▁farm	-4129
▁figu	-4130
▁firm	-4131
▁hará	-4132
▁held	-4133
▁late	-4134
▁line	-4135
▁podr	-4136
▁sola	-4137
▁stop	-4138
▁vers	-4139
ibuted	-4140
inking	-4141
tainty	-4142
▁Esper	-4143
▁Fisch	-4144
▁Human	-4145
▁Natur	-4146
▁Wogau	-4147
▁aband	-4148
▁based	-4149
▁broad	-4150
▁causa	-4151
▁ellas	-4152
▁enfer	-4153
▁equal	-4154
▁fuera	-4155
▁guard	-4156
▁inici	-4157
▁offer	-4158
▁repar	-4159
▁vital	-4160
▁waste	-4161
▁zonas	-4162
ACIONES	-4163
blación	-4164
ientras	-4165
▁Lament	-4166
▁Summit	-4167
▁apoyar	-4168
▁añadir	-4169
▁collec	-4170
▁conclu	-4171
▁consci	-4172
▁desast	-4173
▁either	-4174
▁evitar	-4175
▁explan	-4176
▁fuerza	-4177
▁guidel	-4178
▁juicio	-4179
▁llegar	-4180
▁modelo	-4181
▁ocurre	-4182
▁origin	-4183
▁pertin	-4184
▁pueblo	-4185
▁reflec	-4186
▁tabled	-4187
icultura	-4188
igration	-4189
▁Barnier	-4190
▁Florenz	-4191
▁Schmidt	-4192
▁Swoboda	-4193
▁Thirdly	-4194
▁allowed	-4195
▁aplicar	-4196
▁applied	-4197
▁complic	-4198
▁consegu	-4199
▁exactly	-4200
▁fronter	-4201
▁members	-4202
▁parties	-4203
▁podamos	-4204
▁pretend	-4205
▁prevent	-4206
▁puestos	-4207
▁público	-4208
▁reached	-4209
▁reality	-4210
▁reports	-4211
▁various	-4212
ticamente	-4213
▁Fischler	-4214
▁adelante	-4215
▁adoptado	-4216
▁cantidad	-4217
▁consumer	-4218
▁contexto	-4219
▁creación	-4220
▁ejemplos	-4221
▁historia	-4222
▁increase	-4223
▁judicial	-4224
▁properly	-4225
▁próximos	-4226
▁recomend	-4227
▁required	-4228
▁training	-4229
▁Comunidad	-4230
▁coherence	-4231
▁desarroll	-4232
▁guarantee	-4233
▁intención	-4234
▁ocasiones	-4235
▁paragraph	-4236
▁reference	-4237
▁satisfact	-4238
▁Conference	-4239
▁Reglamento	-4240
▁brevemente	-4241
▁coherencia	-4242
▁concerning	-4243
▁discussing	-4244
▁precaution	-4245
▁presupuest	-4246
▁principles	-4247
▁transporte	-4248
▁actividades	-4249
▁autoridades	-4250
▁conclusions	-4251
▁experiencia	-4252
▁consequences	-4253
▁satisfacción	-4254
▁unemployment	-4255
▁completamente	-4256
▁contaminación	-4257
▁procedimiento	-4258
▁profundamente	-4259
%.	-4260
IF	-4261
SV	-4262
of	-4263
ok	-4264
ég	-4265
▁Á	-4266
cot	-4267
esa	-4268
ify	-4269
izá	-4270
loc	-4271
poc	-4272
sen	-4273
set	-4274
var	-4275
yer	-4276
▁4.	-4277
▁CI	-4278
▁ME	-4279
▁Po	-4280
▁Sh	-4281
airs	-4282
arca	-4283
arge	-4284
arme	-4285
ases	-4286
elas	-4287
enas	-4288
ibil	-4289
igro	-4290
just	-4291
lier	-4292
pped	-4293
vail	-4294
wise	-4295
▁198	-4296
▁Bec	-4297
▁Den	-4298
▁Ese	-4299
▁Kar	-4300
▁Man	-4301
▁Now	-4302
▁PPE	-4303
▁Voy	-4304
▁Yes	-4305
▁adi	-4306
▁adv	-4307
▁ban	-4308
▁bás	-4309
▁det	-4310
▁esc	-4311
▁fam	-4312
▁fed	-4313
▁inj	-4314
▁lan	-4315
▁met	-4316
▁mov	-4317
▁Ése	-4318
atory	-4319
entas	-4320
ficul	-4321
gamos	-4322
ición	-4323
iting	-4324
lanco	-4325
tener	-4326
times	-4327
trado	-4328
▁Dese	-4329
▁East	-4330
▁Econ	-4331
▁Scot	-4332
▁Swed	-4333
▁Then	-4334
▁ampl	-4335
▁bajo	-4336
▁care	-4337
▁cero	-4338
▁enér	-4339
▁fall	-4340
▁hour	-4341
▁imag	-4342
▁lado	-4343
▁medi	-4344
▁muer	-4345
▁méto	-4346
▁name	-4347
▁paga	-4348
▁quin	-4349
▁rean	-4350
▁recy	-4351
▁sufr	-4352
▁symp	-4353
▁tele	-4354
▁wait	-4355
adecer	-4356
atives	-4357
ersson	-4358
ighted	-4359
itaria	-4360
siones	-4361
uclear	-4362
uestro	-4363
éramos	-4364
ística	-4365
▁Austr	-4366
▁Every	-4367
▁Medio	-4368
▁Paper	-4369
▁actos	-4370
▁aquel	-4371
▁avail	-4372
▁becom	-4373
▁centr	-4374
▁corre	-4375
▁discu	-4376
▁exten	-4377
▁fecha	-4378
▁hacen	-4379
▁ideas	-4380
▁influ	-4381
▁justo	-4382
▁lucha	-4383
▁nunca	-4384
▁pesqu	-4385
▁remed	-4386
▁renew	-4387
▁resol	-4388
▁retro	-4389
▁rural	-4390
▁subra	-4391
▁trade	-4392
▁worth	-4393
ciación	-4394
▁confer	-4395
▁contac	-4396
▁create	-4397
▁ecológ	-4398
▁effici	-4399
▁extend	-4400
▁frente	-4401
▁invers	-4402
▁mejora	-4403
▁misión	-4404
▁normal	-4405
▁previs	-4406
▁propon	-4407
▁speech	-4408
▁stands	-4409
▁tenido	-4410
▁África	-4411
teriores	-4412
▁Algunos	-4413
▁Because	-4414
▁Charter	-4415
▁Derecho	-4416
▁Nuestro	-4417
▁actions	-4418
▁content	-4419
▁defensa	-4420
▁desempe	-4421
▁disposi	-4422
▁hombres	-4423
▁include	-4424
▁meeting	-4425
▁mejorar	-4426
▁mundial	-4427
▁organis	-4428
▁peligro	-4429
▁perhaps	-4430
▁quieren	-4431
▁reconci	-4432
▁refiero	-4433
▁resumed	-4434
ification	-4435
▁Bruselas	-4436
▁Brussels	-4437
▁Palestin	-4438
▁actuales	-4439
▁anything	-4440
▁applause	-4441
▁concepto	-4442
▁conflict	-4443
▁examinar	-4444
▁haciendo	-4445
▁igualdad	-4446
▁justific	-4447
▁limitado	-4448
▁practice	-4449
▁recordar	-4450
▁relevant	-4451
onetheless	-4452
▁Andersson	-4453
▁Portugues	-4454
▁Therefore	-4455
▁addressed	-4456
▁agradezco	-4457
▁ambitious	-4458
▁concretas	-4459
▁población	-4460
▁pollution	-4461
▁productos	-4462
▁razonable	-4463
▁semejante	-4464
▁sumamente	-4465
▁suspended	-4466
ectivamente	-4467
▁Comisarios	-4468
▁Finalmente	-4469
▁assistance	-4470
▁considered	-4471
▁contribuir	-4472
▁ecological	-4473
▁experience	-4474
▁extraordin	-4475
▁guidelines	-4476
▁sustancias	-4477
▁authorities	-4478
▁established	-4479
▁instrumento	-4480
▁considerable	-4481
▁Commissioners	-4482
▁estructurales	-4483
▁investigación	-4484
▁negociaciones	-4485
▁oportunidades	-4486
▁perfectamente	-4487
▁subsidiariedad	-4488
▁particularmente	-4489
AF	-4490
DE	-4491
Of	-4492
ez	-4493
pt	-4494
üs	-4495
Est	-4496
LAF	-4497
dam	-4498
dle	-4499
ibi	-4500
jud	-4501
oud	-4502
pti	-4503
urt	-4504
vés	-4505
▁80	-4506
▁Af	-4507
▁Be	-4508
▁DE	-4509
▁Ob	-4510
▁Sa	-4511
▁UN	-4512
▁ol	-4513
.000	-4514
acto	-4515
anas	-4516
atos	-4517
cale	-4518
ched	-4519
esti	-4520
head	-4521
ineh	-4522
more	-4523
omin	-4524
opol	-4525
orno	-4526
osed	-4527
ouch	-4528
roed	-4529
sing	-4530
tual	-4531
ulta	-4532
utos	-4533
ándo	-4534
▁Bar	-4535
▁cho	-4536
▁cle	-4537
▁dee	-4538
▁hin	-4539
▁ill	-4540
▁low	-4541
▁mul	-4542
▁pop	-4543
▁run	-4544
▁san	-4545
▁wat	-4546
5-003	-4547
Quién	-4548
alled	-4549
altar	-4550
board	-4551
brero	-4552
iales	-4553
ienem	-4554
itime	-4555
lease	-4556
mster	-4557
ology	-4558
ueves	-4559
▁1995	-4560
▁Does	-4561
▁Está	-4562
▁Febr	-4563
▁OLAF	-4564
▁Pala	-4565
▁acog	-4566
▁allá	-4567
▁bast	-4568
▁deba	-4569
▁fase	-4570
▁inno	-4571
▁join	-4572
▁loss	-4573
▁lost	-4574
▁mere	-4575
▁pena	-4576
▁pron	-4577
▁puer	-4578
▁rate	-4579
▁test	-4580
Cuáles	-4581
Office	-4582
atorio	-4583
terday	-4584
though	-4585
tional	-4586
uerdos	-4587
ursday	-4588
zación	-4589
▁11.30	-4590
▁1997.	-4591
▁Carta	-4592
▁Funds	-4593
▁Hasta	-4594
▁Havel	-4595
▁Kouch	-4596
▁Never	-4597
▁Today	-4598
▁Where	-4599
▁afron	-4600
▁bueno	-4601
▁cargo	-4602
▁chann	-4603
▁demos	-4604
▁desea	-4605
▁divid	-4606
▁enfor	-4607
▁error	-4608
▁exces	-4609
▁explo	-4610
▁field	-4611
▁fácil	-4612
▁later	-4613
▁leave	-4614
▁lista	-4615
▁límit	-4616
▁menor	-4617
▁parts	-4618
▁party	-4619
▁permí	-4620
▁price	-4621
▁resid	-4622
▁serie	-4623
▁serio	-4624
▁subst	-4625
ecución	-4626
endario	-4627
roedter	-4628
taining	-4629
▁Americ	-4630
▁German	-4631
▁Lienem	-4632
▁Unidos	-4633
▁acceso	-4634
▁aconte	-4635
▁alegra	-4636
▁analys	-4637
▁asking	-4638
▁burden	-4639
▁circum	-4640
▁compla	-4641
▁conden	-4642
▁convin	-4643
▁deberá	-4644
▁dinero	-4645
▁enorme	-4646
▁espero	-4647
▁fabric	-4648
▁factor	-4649
▁garant	-4650
▁grupos	-4651
▁impact	-4652
▁ladies	-4653
▁legiti	-4654
▁maríti	-4655
▁menudo	-4656
▁portug	-4657
▁referr	-4658
▁reques	-4659
▁stated	-4660
▁stress	-4661
▁target	-4662
▁voting	-4663
msterdam	-4664
▁Durante	-4665
▁Palacio	-4666
▁abandon	-4667
▁abordar	-4668
▁appreci	-4669
▁aspects	-4670
▁categor	-4671
▁correct	-4672
▁desapar	-4673
▁earlier	-4674
▁energía	-4675
▁esperar	-4676
▁hablado	-4677
▁markets	-4678
▁message	-4679
▁minimum	-4680
▁permite	-4681
▁presión	-4682
▁próximo	-4683
▁rechaza	-4684
▁reducir	-4685
▁sympath	-4686
▁withdra	-4687
▁ámbitos	-4688
ficulties	-4689
▁Asimismo	-4690
▁Austrian	-4691
▁February	-4692
▁Internet	-4693
▁Kouchner	-4694
▁Thursday	-4695
▁acuerdos	-4696
▁asimismo	-4697
▁concreto	-4698
▁elemento	-4699
▁enfermed	-4700
▁estrateg	-4701
▁existing	-4702
▁exterior	-4703
▁gobierno	-4704
▁petición	-4705
▁producto	-4706
▁products	-4707
▁remember	-4708
▁sistemas	-4709
▁thinking	-4710
▁Esperamos	-4711
▁agradecer	-4712
▁carefully	-4713
▁comercial	-4714
▁comunidad	-4715
▁concludes	-4716
▁contamina	-4717
▁controles	-4718
▁disasters	-4719
▁documento	-4720
▁fronteras	-4721
▁impuestos	-4722
▁introduce	-4723
▁opiniones	-4724
▁organismo	-4725
▁potencial	-4726
▁presentar	-4727
▁timetable	-4728
▁Portuguese	-4729
▁Schroedter	-4730
▁Structural	-4731
▁calendario	-4732
▁commitment	-4733
▁fundamento	-4734
▁impossible	-4735
▁investment	-4736
▁necesarias	-4737
▁plenamente	-4738
▁strengthen	-4739
▁sufficient	-4740
▁ciertamente	-4741
▁constituyen	-4742
▁desarrollar	-4743
▁improvement	-4744
▁interesante	-4745
▁perspectiva	-4746
▁possibility	-4747
▁presupuesto	-4748
▁principales	-4749
▁prioridades	-4750
▁resolutions	-4751
▁consumidores	-4752
▁continuación	-4753
▁difficulties	-4754
▁responsables	-4755
▁circumstances	-4756
▁consideración	-4757
▁disposiciones	-4758
▁precautionary	-4759
2.	-4760
PL	-4761
ho	-4762
ix	-4763
yn	-4764
ós	-4765
IFE	-4766
XPL	-4767
app	-4768
bos	-4769
itu	-4770
pas	-4771
quí	-4772
rea	-4773
vit	-4774
érd	-4775
ócr	-4776
▁21	-4777
▁37	-4778
▁7.	-4779
▁Ad	-4780
▁EC	-4781
▁Pr	-4782
▁Sí	-4783
▁av	-4784
▁er	-4785
▁fl	-4786
aged	-4787
ages	-4788
aken	-4789
cide	-4790
eras	-4791
hern	-4792
icho	-4793
ides	-4794
idez	-4795
iría	-4796
laud	-4797
mind	-4798
osta	-4799
pose	-4800
quen	-4801
ream	-4802
rome	-4803
árra	-4804
▁...	-4805
▁000	-4806
▁13.	-4807
▁CIG	-4808
▁Dem	-4809
▁Ent	-4810
▁Ind	-4811
▁May	-4812
▁Not	-4813
▁Pod	-4814
▁Sab	-4815
▁Son	-4816
▁Ter	-4817
▁Uno	-4818
▁aso	-4819
▁ata	-4820
▁aus	-4821
▁big	-4822
▁bor	-4823
▁deg	-4824
▁dud	-4825
▁fij	-4826
▁led	-4827
▁mix	-4828
▁oil	-4829
▁ren	-4830
▁sex	-4831
▁sos	-4832
▁tuv	-4833
▁veo	-4834
▁vin	-4835
▁vía	-4836
acter	-4837
aking	-4838
attle	-4839
cling	-4840
ensus	-4841
foris	-4842
iddle	-4843
ieron	-4844
ified	-4845
lying	-4846
ática	-4847
ático	-4848
ócrat	-4849
▁Actu	-4850
▁Balk	-4851
▁Both	-4852
▁Cada	-4853
▁Cont	-4854
▁EXPL	-4855
▁Esco	-4856
▁From	-4857
▁Kati	-4858
▁Once	-4859
▁asum	-4860
▁atta	-4861
▁cabe	-4862
▁came	-4863
▁chec	-4864
▁comb	-4865
▁cuál	-4866
▁deep	-4867
▁desc	-4868
▁esti	-4869
▁ever	-4870
▁fore	-4871
▁heav	-4872
▁inad	-4873
▁limp	-4874
▁live	-4875
▁pays	-4876
▁pend	-4877
▁prob	-4878
▁pérd	-4879
▁rest	-4880
▁rule	-4881
▁sabe	-4882
▁send	-4883
▁sour	-4884
▁vale	-4885
▁worr	-4886
ección	-4887
ection	-4888
making	-4889
public	-4890
▁Compr	-4891
▁Dineh	-4892
▁Justi	-4893
▁Libro	-4894
▁March	-4895
▁Usted	-4896
▁White	-4897
▁Women	-4898
▁agric	-4899
▁cause	-4900
▁child	-4901
▁cient	-4902
▁dealt	-4903
▁debil	-4904
▁delic	-4905
▁disch	-4906
▁emerg	-4907
▁famil	-4908
▁gasto	-4909
▁habit	-4910
▁heart	-4911
▁incon	-4912
▁innov	-4913
▁inver	-4914
▁juris	-4915
▁learn	-4916
▁marzo	-4917
▁occas	-4918
▁pagar	-4919
▁paper	-4920
▁power	-4921
▁párra	-4922
▁spend	-4923
▁takes	-4924
▁tales	-4925
▁urban	-4926
▁vigor	-4927
▁virus	-4928
▁visto	-4929
olution	-4930
quently	-4931
tically	-4932
▁Blanco	-4933
▁Proced	-4934
▁amplio	-4935
▁assure	-4936
▁automo	-4937
▁coches	-4938
▁contar	-4939
▁deeply	-4940
▁desper	-4941
▁estudi	-4942
▁extent	-4943
▁forces	-4944
▁hardly	-4945
▁ingres	-4946
▁inspec	-4947
▁jueves	-4948
▁labour	-4949
▁medium	-4950
▁máximo	-4951
▁nuevas	-4952
▁office	-4953
▁pensar	-4954
▁prefer	-4955
▁puedan	-4956
▁reglas	-4957
▁remind	-4958
▁rápida	-4959
▁siguen	-4960
▁subray	-4961
▁través	-4962
▁urgent	-4963
igración	-4964
stancias	-4965
tiveness	-4966
▁Central	-4967
▁actitud	-4968
▁aumento	-4969
▁cambiar	-4970
▁complex	-4971
▁consist	-4972
▁converg	-4973
▁counter	-4974
▁dealing	-4975
▁elected	-4976
▁elector	-4977
▁enfrent	-4978
▁equival	-4979
▁espacio	-4980
▁febrero	-4981
▁finally	-4982
▁integra	-4983
▁legitim	-4984
▁locales	-4985
▁mensaje	-4986
▁minutes	-4987
▁minutos	-4988
▁nuclear	-4989
▁periodo	-4990
▁postura	-4991
▁prestar	-4992
▁private	-4993
▁propose	-4994
▁próxima	-4995
▁quienes	-4996
▁succeed	-4997
▁version	-4998
ificación	-4999
▁absoluto	-5000
▁acciones	-5001
▁adhesión	-5002
▁analysis	-5003
▁apartado	-5004
▁building	-5005
▁celebrar	-5006
▁claridad	-5007
▁concrete	-5008
▁contains	-5009
▁contrary	-5010
▁definite	-5011
▁diputado	-5012
▁esfuerzo	-5013
▁examples	-5014
▁expresar	-5015
▁greatest	-5016
▁informed	-5017
▁informes	-5018
▁relativa	-5019
▁requiere	-5020
▁resaltar	-5021
▁respecta	-5022
▁señalado	-5023
▁subjects	-5024
▁trabajar	-5025
▁Amsterdam	-5026
▁Directive	-5027
▁Katiforis	-5028
▁capacidad	-5029
▁certainty	-5030
▁community	-5031
▁condición	-5032
▁continent	-5033
▁continuar	-5034
▁decisions	-5035
▁diferente	-5036
▁discussed	-5037
▁elections	-5038
▁highlight	-5039
▁obviously	-5040
▁prioridad	-5041
▁referring	-5042
▁reflexión	-5043
▁submitted	-5044
▁anteriores	-5045
▁bienvenida	-5046
▁complement	-5047
▁correspond	-5048
▁financiera	-5049
▁monitoring	-5050
▁naturaleza	-5051
▁participar	-5052
▁procedures	-5053
▁production	-5054
▁reasonable	-5055
▁substances	-5056
▁corresponde	-5057
▁iniciativas	-5058
▁suficientes	-5059
▁transparent	-5060
▁Naturalmente	-5061
▁colaboración	-5062
▁flexibilidad	-5063
▁funcionarios	-5064
▁insuficiente	-5065
▁transparente	-5066
▁Unfortunately	-5067
▁liberalización	-5068
05	-5069
5%	-5070
81	-5071
DS	-5072
En	-5073
LT	-5074
TS	-5075
tn	-5076
ím	-5077
▁Z	-5078
Car	-5079
amp	-5080
bur	-5081
coh	-5082
dif	-5083
eda	-5084
eme	-5085
equ	-5086
iza	-5087
jas	-5088
kop	-5089
lag	-5090
nes	-5091
ods	-5092
pié	-5093
rel	-5094
ren	-5095
ris	-5096
▁17	-5097
▁24	-5098
▁31	-5099
▁41	-5100
▁42	-5101
▁43	-5102
▁ED	-5103
▁OM	-5104
-004	-5105
-079	-5106
CITS	-5107
Loud	-5108
bett	-5109
body	-5110
cida	-5111
ench	-5112
enso	-5113
ento	-5114
hens	-5115
iden	-5116
inas	-5117
inos	-5118
lies	-5119
mous	-5120
pain	-5121
pect	-5122
quía	-5123
ross	-5124
tein	-5125
uesa	-5126
urtz	-5127
void	-5128
year	-5129
▁Agr	-5130
▁Ass	-5131
▁Bol	-5132
▁Cam	-5133
▁Cer	-5134
▁Esa	-5135
▁Ins	-5136
▁Jan	-5137
▁Mil	-5138
▁Rom	-5139
▁San	-5140
▁Who	-5141
▁abo	-5142
▁att	-5143
▁bad	-5144
▁cou	-5145
▁doy	-5146
▁fel	-5147
▁fem	-5148
▁fig	-5149
▁fil	-5150
▁lat	-5151
▁mos	-5152
▁neg	-5153
▁sir	-5154
▁soy	-5155
▁tér	-5156
▁var	-5157
adora	-5158
amber	-5159
aving	-5160
breza	-5161
canes	-5162
capié	-5163
cioso	-5164
earch	-5165
ecido	-5166
ienta	-5167
ished	-5168
itado	-5169
itary	-5170
journ	-5171
mania	-5172
timos	-5173
ually	-5174
verty	-5175
ítica	-5176
▁1996	-5177
▁AIDS	-5178
▁Berg	-5179
▁Berl	-5180
▁Danu	-5181
▁Hace	-5182
▁LIFE	-5183
▁Last	-5184
▁Many	-5185
▁Pien	-5186
▁abst	-5187
▁anál	-5188
▁asis	-5189
▁ayer	-5190
▁crea	-5191
▁dead	-5192
▁deli	-5193
▁depl	-5194
▁educ	-5195
▁ella	-5196
▁gain	-5197
▁goal	-5198
▁hosp	-5199
▁lect	-5200
▁link	-5201
▁ofre	-5202
▁oído	-5203
▁perd	-5204
▁purs	-5205
▁shar	-5206
▁spec	-5207
▁tool	-5208
▁ways	-5209
▁week	-5210
alidad	-5211
called	-5212
hesion	-5213
ically	-5214
tiendo	-5215
íficos	-5216
▁After	-5217
▁Alban	-5218
▁Costa	-5219
▁Luego	-5220
▁McCar	-5221
▁UCITS	-5222
▁Vamos	-5223
▁Water	-5224
▁Wurtz	-5225
▁ahead	-5226
▁alcoh	-5227
▁aport	-5228
▁asilo	-5229
▁avoid	-5230
▁campo	-5231
▁carry	-5232
▁close	-5233
▁compa	-5234
▁cuota	-5235
▁decep	-5236
▁dedic	-5237
▁dicha	-5238
▁enero	-5239
▁facts	-5240
▁gives	-5241
▁happy	-5242
▁heavy	-5243
▁intol	-5244
▁occur	-5245
▁ocupa	-5246
▁pleno	-5247
▁quede	-5248
▁racis	-5249
▁remar	-5250
▁risks	-5251
▁según	-5252
▁steps	-5253
▁study	-5254
▁wrong	-5255
/2000).	-5256
biernos	-5257
cessive	-5258
cording	-5259
▁Agenda	-5260
▁Cuando	-5261
▁Declar	-5262
▁Econom	-5263
▁French	-5264
▁Middle	-5265
▁Please	-5266
▁Repres	-5267
▁Serbia	-5268
▁access	-5269
▁amount	-5270
▁appeal	-5271
▁around	-5272
▁assent	-5273
▁called	-5274
▁chance	-5275
▁corrup	-5276
▁degree	-5277
▁disapp	-5278
▁eficaz	-5279
▁estrat	-5280
▁gastos	-5281
▁graves	-5282
▁ilegal	-5283
▁living	-5284
▁luchar	-5285
▁merece	-5286
▁namely	-5287
▁orient	-5288
▁partir	-5289
▁pedido	-5290
▁premis	-5291
▁promes	-5292
▁quería	-5293
▁recicl	-5294
▁review	-5295
▁sucede	-5296
▁tomado	-5297
▁traged	-5298
▁términ	-5299
▁unable	-5300
▁varias	-5301
▁varios	-5302
▁welcom	-5303
abilidad	-5304
cindible	-5305
▁Balkans	-5306
▁Chamber	-5307
▁Corbett	-5308
▁Denmark	-5309
▁Después	-5310
▁Escocia	-5311
▁Finland	-5312
▁Francia	-5313
▁Further	-5314
▁January	-5315
▁Liberal	-5316
▁Nuestra	-5317
▁Oriente	-5318
▁Perhaps	-5319
▁Sabemos	-5320
▁affairs	-5321
▁amenaza	-5322
▁approve	-5323
▁aproxim	-5324
▁benefit	-5325
▁clarify	-5326
▁constru	-5327
▁created	-5328
▁debatir	-5329
▁defence	-5330
▁describ	-5331
▁disease	-5332
▁efectos	-5333
▁examine	-5334
▁federal	-5335
▁fishing	-5336
▁fuerzas	-5337
▁hacerse	-5338
▁happens	-5339
▁history	-5340
▁hubiera	-5341
▁incluir	-5342
▁looking	-5343
▁managed	-5344
▁manifes	-5345
▁monopol	-5346
▁morning	-5347
▁outside	-5348
▁pobreza	-5349
▁poverty	-5350
▁ratific	-5351
▁reading	-5352
▁reduced	-5353
▁relates	-5354
▁repetir	-5355
▁sustain	-5356
▁terreno	-5357
▁topical	-5358
▁tratado	-5359
ibilities	-5360
vilística	-5361
▁Balcanes	-5362
▁Ministro	-5363
▁Política	-5364
▁Scotland	-5365
▁Tratados	-5366
▁affected	-5367
▁afrontar	-5368
▁alcanzar	-5369
▁analizar	-5370
▁análisis	-5371
▁aplausos	-5372
▁challeng	-5373
▁ciudades	-5374
▁comercio	-5375
▁comprome	-5376
▁critical	-5377
▁deberían	-5378
▁desastre	-5379
▁escuchar	-5380
▁falsific	-5381
▁fomentar	-5382
▁hincapié	-5383
▁intentar	-5384
▁maritime	-5385
▁mediante	-5386
▁mercados	-5387
▁original	-5388
▁pressure	-5389
▁proceder	-5390
▁proteger	-5391
▁referido	-5392
▁rejected	-5393
▁relativo	-5394
▁research	-5395
▁revisión	-5396
▁sectores	-5397
▁speakers	-5398
▁spending	-5399
▁strategy	-5400
▁tengamos	-5401
▁voluntad	-5402
▁According	-5403
▁Comprendo	-5404
▁Lienemann	-5405
▁Questions	-5406
▁arguments	-5407
▁available	-5408
▁beginning	-5409
▁compartir	-5410
▁consensus	-5411
▁contestar	-5412
▁convenien	-5413
▁desempleo	-5414
▁discharge	-5415
▁ejecución	-5416
▁escuchado	-5417
▁esperamos	-5418
▁garantías	-5419
▁involving	-5420
▁officials	-5421
▁principal	-5422
▁recycling	-5423
▁seriously	-5424
▁Convention	-5425
▁acceptable	-5426
▁activities	-5427
▁agreements	-5428
▁colleagues	-5429
▁diferencia	-5430
▁elecciones	-5431
▁evaluación	-5432
▁introducir	-5433
▁mencionado	-5434
▁portuguesa	-5435
▁precaución	-5436
▁prevención	-5437
▁restricted	-5438
▁situations	-5439
▁soluciones	-5440
▁únicamente	-5441
▁credibility	-5442
▁discussions	-5443
▁disposición	-5444
▁distributed	-5445
▁flexibility	-5446
▁immigration	-5447
▁initiatives	-5448
▁nonetheless	-5449
▁partnership	-5450
▁competencias	-5451
▁conclusiones	-5452
▁consecuencia	-5453
▁contribución	-5454
▁financiación	-5455
▁instrumentos	-5456
▁presentación	-5457
▁trabajadores	-5458
▁opportunities	-5459
▁unfortunately	-5460
▁imprescindible	-5461
▁automovilística	-5462
4,	-5463
Ps	-5464
SA	-5465
SP	-5466
VM	-5467
YM	-5468
ls	-5469
tc	-5470
íc	-5471
ód	-5472
ake	-5473
bit	-5474
fía	-5475
gue	-5476
isp	-5477
nic	-5478
the	-5479
tid	-5480
tti	-5481
uly	-5482
uth	-5483
ñol	-5484
▁1,	-5485
▁Ej	-5486
▁ep	-5487
▁ul	-5488
Euro	-5489
ICVM	-5490
aban	-5491
cera	-5492
city	-5493
crip	-5494
erar	-5495
ería	-5496
hold	-5497
inam	-5498
ingd	-5499
irse	-5500
ison	-5501
most	-5502
onom	-5503
tada	-5504
tame	-5505
tida	-5506
tims	-5507
utin	-5508
vech	-5509
ylum	-5510
ícti	-5511
▁Ano	-5512
▁BSE	-5513
▁Bas	-5514
▁Bel	-5515
▁Dav	-5516
▁Gol	-5517
▁PSE	-5518
▁Que	-5519
▁Rep	-5520
▁Rus	-5521
▁Soy	-5522
▁Val	-5523
▁air	-5524
▁arm	-5525
▁cif	-5526
▁cur	-5527
▁dan	-5528
▁don	-5529
▁eng	-5530
▁etc	-5531
▁eth	-5532
▁har	-5533
▁ign	-5534
▁log	-5535
▁lóg	-5536
▁rac	-5537
▁sel	-5538
▁tex	-5539
▁trá	-5540
▁Ést	-5541
5-001	-5542
ances	-5543
arily	-5544
bable	-5545
cidas	-5546
crito	-5547
etter	-5548
graci	-5549
ionar	-5550
onstr	-5551
tocol	-5552
tures	-5553
urely	-5554
where	-5555
ércol	-5556
íritu	-5557
órico	-5558
▁Apro	-5559
▁Conf	-5560
▁Even	-5561
▁Just	-5562
▁Like	-5563
▁Most	-5564
▁Ning	-5565
▁Otro	-5566
▁Segu	-5567
▁Span	-5568
▁abol	-5569
▁alto	-5570
▁apor	-5571
▁char	-5572
▁conn	-5573
▁dijo	-5574
▁easy	-5575
▁empr	-5576
▁enga	-5577
▁exer	-5578
▁feed	-5579
▁frag	-5580
▁inqu	-5581
▁mand	-5582
▁meth	-5583
▁news	-5584
▁pide	-5585
▁rise	-5586
▁seis	-5587
▁temp	-5588
▁weak	-5589
▁xeno	-5590
▁zero	-5591
ateful	-5592
atever	-5593
contin	-5594
forzar	-5595
irable	-5596
istros	-5597
onesia	-5598
stream	-5599
uments	-5600
urales	-5601
visión	-5602
▁1999.	-5603
▁Antes	-5604
▁Deseo	-5605
▁Dinam	-5606
▁Hence	-5607
▁Nadie	-5608
▁OICVM	-5609
▁Quite	-5610
▁Reino	-5611
▁Sobre	-5612
▁Spain	-5613
▁Unido	-5614
▁acord	-5615
▁ambos	-5616
▁armon	-5617
▁basta	-5618
▁board	-5619
▁breve	-5620
▁campa	-5621
▁clave	-5622
▁clean	-5623
▁comit	-5624
▁compl	-5625
▁count	-5626
▁cover	-5627
▁death	-5628
▁deriv	-5629
▁dónde	-5630
▁emple	-5631
▁escas	-5632
▁exige	-5633
▁fraud	-5634
▁insis	-5635
▁juego	-5636
▁knows	-5637
▁libre	-5638
▁línea	-5639
▁norte	-5640
▁oppos	-5641
▁perse	-5642
▁pocos	-5643
▁quizá	-5644
▁rapid	-5645
▁refug	-5646
▁resto	-5647
▁rigor	-5648
▁sides	-5649
▁staff	-5650
▁stric	-5651
▁tenga	-5652
▁truth	-5653
▁until	-5654
▁vícti	-5655
▁while	-5656
▁éstas	-5657
▁éstos	-5658
entific	-5659
iéramos	-5660
kestein	-5661
▁Compar	-5662
▁España	-5663
▁Pienso	-5664
▁Rights	-5665
▁Surely	-5666
▁across	-5667
▁agreed	-5668
▁aplica	-5669
▁asylum	-5670
▁attend	-5671
▁buenas	-5672
▁coming	-5673
▁compre	-5674
▁confus	-5675
▁cuáles	-5676
▁danger	-5677
▁descon	-5678
▁design	-5679
▁destro	-5680
▁espera	-5681
▁estaba	-5682
▁estric	-5683
▁exists	-5684
▁facing	-5685
▁failed	-5686
▁friend	-5687
▁ground	-5688
▁habría	-5689
▁impera	-5690
▁latter	-5691
▁manner	-5692
▁marcha	-5693
▁partid	-5694
▁please	-5695
▁prohib	-5696
▁recons	-5697
▁remark	-5698
▁status	-5699
▁subven	-5700
▁supone	-5701
▁talked	-5702
▁traduc	-5703
▁viable	-5704
▁vision	-5705
entative	-5706
eramente	-5707
oreboard	-5708
▁Algunas	-5709
▁Another	-5710
▁Europol	-5711
▁Lamento	-5712
▁Primero	-5713
▁aclarar	-5714
▁ampliar	-5715
▁avances	-5716
▁balance	-5717
▁briefly	-5718
▁concept	-5719
▁conduct	-5720
▁creemos	-5721
▁defined	-5722
▁demands	-5723
▁derecha	-5724
▁español	-5725
▁estudio	-5726
▁expresa	-5727
▁firstly	-5728
▁gestion	-5729
▁growing	-5730
▁heading	-5731
▁lectura	-5732
▁levanta	-5733
▁mercanc	-5734
▁militar	-5735
▁motivos	-5736
▁overall	-5737
▁parecer	-5738
▁pequeña	-5739
▁persona	-5740
▁pueblos	-5741
▁reanuda	-5742
▁recurso	-5743
▁regards	-5744
▁remarks	-5745
▁riesgos	-5746
▁section	-5747
▁suggest	-5748
▁urgente	-5749
▁versión	-5750
▁victims	-5751
▁December	-5752
▁Derechos	-5753
▁adopción	-5754
▁apoyamos	-5755
▁aprobada	-5756
▁aumentar	-5757
▁ausencia	-5758
▁bastante	-5759
▁concentr	-5760
▁consiste	-5761
▁demonstr	-5762
▁eliminar	-5763
▁equality	-5764
▁espíritu	-5765
▁flexible	-5766
▁grateful	-5767
▁improved	-5768
▁military	-5769
▁palestin	-5770
▁pretende	-5771
▁probably	-5772
▁provided	-5773
▁refieren	-5774
▁siquiera	-5775
▁strongly	-5776
▁sympathy	-5777
▁trabajos	-5778
▁treaties	-5779
▁urgencia	-5780
▁Dinamarca	-5781
▁Indonesia	-5782
▁according	-5783
▁afectados	-5784
▁condition	-5785
▁considero	-5786
▁convertir	-5787
▁counterfe	-5788
▁demuestra	-5789
▁dimensión	-5790
▁emphasise	-5791
▁entendido	-5792
▁estatales	-5793
▁funciones	-5794
▁humanitar	-5795
▁inversión	-5796
▁materials	-5797
▁presented	-5798
▁producido	-5799
▁progresos	-5800
▁propuesto	-5801
▁reconcili	-5802
▁satisfied	-5803
▁sometimes	-5804
▁structure	-5805
▁yesterday	-5806
▁Bolkestein	-5807
▁Regulation	-5808
▁VOTACIONES	-5809
▁argumentos	-5810
▁beneficios	-5811
▁challenges	-5812
▁conseguido	-5813
▁contribute	-5814
▁difference	-5815
▁económicos	-5816
▁efficiency	-5817
▁enfermedad	-5818
▁equilibrio	-5819
▁introduced	-5820
▁obligación	-5821
▁population	-5822
▁prevention	-5823
▁recognised	-5824
▁scientific	-5825
▁solidarity	-5826
▁statements	-5827
▁Actualmente	-5828
▁alimentaria	-5829
▁application	-5830
▁exactamente	-5831
▁governments	-5832
▁inmigración	-5833
▁instruments	-5834
▁interesting	-5835
▁legislativa	-5836
▁simplemente	-5837
▁situaciones	-5838
▁solidaridad	-5839
▁utilización	-5840
graciadamente	-5841
▁Nevertheless	-5842
▁conciliación	-5843
▁credibilidad	-5844
▁developments	-5845
▁distribución	-5846
▁expectations	-5847
▁interrumpida	-5848
▁modificación	-5849
▁parlamentario	-5850
▁posibilidades	-5851
▁administración	-5852
▁circunstancias	-5853
▁recomendaciones	-5854
10	-5855
AR	-5856
HO	-5857
PÖ	-5858
az	-5859
by	-5860
fy	-5861
gl	-5862
uz	-5863
ám	-5864
ör	-5865
.40	-5866
ATO	-5867
ads	-5868
aga	-5869
bes	-5870
cen	-5871
chi	-5872
cla	-5873
ecn	-5874
ilt	-5875
irá	-5876
izo	-5877
ked	-5878
key	-5879
lán	-5880
oin	-5881
ojo	-5882
omé	-5883
orr	-5884
oul	-5885
rie	-5886
rok	-5887
thu	-5888
thy	-5889
ton	-5890
ury	-5891
ush	-5892
way	-5893
ühr	-5894
▁16	-5895
▁23	-5896
▁35	-5897
▁47	-5898
▁48	-5899
▁60	-5900
▁Ap	-5901
▁CE	-5902
▁Ma	-5903
▁Mu	-5904
▁OT	-5905
▁Sé	-5906
▁ri	-5907
▁ór	-5908
-078	-5909
-080	-5910
Cuál	-5911
ENER	-5912
SPAR	-5913
alai	-5914
atar	-5915
bios	-5916
cing	-5917
curr	-5918
endt	-5919
enos	-5920
esta	-5921
fers	-5922
iego	-5923
iete	-5924
imor	-5925
irit	-5926
ixas	-5927
ized	-5928
mbol	-5929
olid	-5930
onga	-5931
oria	-5932
orms	-5933
osal	-5934
osti	-5935
reas	-5936
recu	-5937
soni	-5938
tage	-5939
tead	-5940
teen	-5941
tory	-5942
turn	-5943
yond	-5944
óvil	-5945
▁ALT	-5946
▁FPÖ	-5947
▁Gal	-5948
▁Gor	-5949
▁Obv	-5950
▁Pes	-5951
▁Pos	-5952
▁Syr	-5953
▁Tal	-5954
▁Two	-5955
▁adh	-5956
▁ais	-5957
▁dep	-5958
▁ens	-5959
▁juz	-5960
▁len	-5961
▁mec	-5962
▁net	-5963
▁pud	-5964
▁pun	-5965
▁ret	-5966
▁ton	-5967
▁tro	-5968
▁vul	-5969
▁ése	-5970
abell	-5971
anced	-5972
antos	-5973
atura	-5974
burgo	-5975
dades	-5976
inese	-5977
itive	-5978
ledge	-5979
loyed	-5980
ought	-5981
quién	-5982
tedly	-5983
temos	-5984
tidos	-5985
timis	-5986
uales	-5987
uestr	-5988
uring	-5989
vedad	-5990
ximum	-5991
yssen	-5992
üssel	-5993
▁Aquí	-5994
▁Bano	-5995
▁Cons	-5996
▁Fran	-5997
▁Fras	-5998
▁Lama	-5999
▁Lomé	-6000
▁MEPs	-6001
▁Mich	-6002
▁NATO	-6003
▁Nues	-6004
▁Pres	-6005
▁Resp	-6006
▁Roth	-6007
▁Sten	-6008
▁Tamp	-6009
▁Well	-6010
▁afir	-6011
▁auto	-6012
▁body	-6013
▁cara	-6014
▁cuar	-6015
▁dici	-6016
▁dras	-6017
▁dura	-6018
▁edif	-6019
▁eran	-6020
▁fear	-6021
▁frac	-6022
▁grad	-6023
▁home	-6024
▁horr	-6025
▁hund	-6026
▁laps	-6027
▁lies	-6028
▁mano	-6029
▁mult	-6030
▁near	-6031
▁peor	-6032
▁pure	-6033
▁qual	-6034
▁rein	-6035
▁safe	-6036
▁sanc	-6037
▁sent	-6038
▁solo	-6039
▁suec	-6040
▁surv	-6041
▁tecn	-6042
▁thus	-6043
▁told	-6044
▁verg	-6045
▁wide	-6046
2/00):	-6047
5/00):	-6048
8/99):	-6049
ateral	-6050
bación	-6051
coming	-6052
eneral	-6053
hrendt	-6054
iremos	-6055
lation	-6056
ointed	-6057
ología	-6058
orable	-6059
rought	-6060
sidero	-6061
trices	-6062
ulsory	-6063
ándose	-6064
▁1998.	-6065
▁Allow	-6066
▁Carib	-6067
▁Dalai	-6068
▁Deber	-6069
▁Ejido	-6070
▁Elles	-6071
▁Finan	-6072
▁OSPAR	-6073
▁Other	-6074
▁Puede	-6075
▁Sería	-6076
▁Since	-6077
▁Somos	-6078
▁Timor	-6079
▁above	-6080
▁abrir	-6081
▁admit	-6082
▁afirm	-6083
▁await	-6084
▁blame	-6085
▁carga	-6086
▁codec	-6087
▁corto	-6088
▁doble	-6089
▁drawn	-6090
▁efect	-6091
▁encar	-6092
▁enérg	-6093
▁expla	-6094
▁falls	-6095
▁franc	-6096
▁goods	-6097
▁grado	-6098
▁hands	-6099
▁hours	-6100
▁langu	-6101
▁lives	-6102
▁manos	-6103
▁miles	-6104
▁multi	-6105
▁offic	-6106
▁pacto	-6107
▁plans	-6108
▁podrá	-6109
▁prove	-6110
▁querr	-6111
▁recup	-6112
▁refle	-6113
▁repro	-6114
▁ruego	-6115
▁shown	-6116
▁siete	-6117
▁sound	-6118
▁stake	-6119
▁suces	-6120
▁thous	-6121
▁topic	-6122
▁tough	-6123
▁trasv	-6124
▁ultim	-6125
▁value	-6126
▁wants	-6127
7/2000)	-6128
continu	-6129
elating	-6130
reement	-6131
umption	-6132
ércoles	-6133
▁Assemb	-6134
▁Berger	-6135
▁Berthu	-6136
▁Budget	-6137
▁Comité	-6138
▁Corrie	-6139
▁Existe	-6140
▁France	-6141
▁Medina	-6142
▁Seixas	-6143
▁alguno	-6144
▁ambigu	-6145
▁animal	-6146
▁assess	-6147
▁attack	-6148
▁belong	-6149
▁brings	-6150
▁calcul	-6151
▁causes	-6152
▁coinci	-6153
▁comien	-6154
▁compon	-6155
▁confir	-6156
▁couple	-6157
▁decide	-6158
▁dejado	-6159
▁electr	-6160
▁fuente	-6161
▁hombre	-6162
▁inevit	-6163
▁inmedi	-6164
▁letter	-6165
▁líneas	-6166
▁mínimo	-6167
▁perjud	-6168
▁piensa	-6169
▁podrán	-6170
▁police	-6171
▁politi	-6172
▁powers	-6173
▁produz	-6174
▁refuge	-6175
▁requis	-6176
▁respal	-6177
▁simpli	-6178
▁sosten	-6179
▁tareas	-6180
▁visión	-6181
▁weaken	-6182
cionales	-6183
ettering	-6184
ivamente	-6185
tablecer	-6186
▁ALTENER	-6187
▁Acuerdo	-6188
▁Banotti	-6189
▁Certain	-6190
▁Chinese	-6191
▁Creemos	-6192
▁Podemos	-6193
▁Tampere	-6194
▁Thyssen	-6195
▁arrived	-6196
▁brought	-6197
▁capaces	-6198
▁company	-6199
▁convers	-6200
▁deberán	-6201
▁decided	-6202
▁decirlo	-6203
▁declare	-6204
▁deserve	-6205
▁dispone	-6206
▁element	-6207
▁empresa	-6208
▁exercis	-6209
▁exponer	-6210
▁figures	-6211
▁foreign	-6212
▁función	-6213
▁granted	-6214
▁illegal	-6215
▁imponer	-6216
▁inadmis	-6217
▁incluye	-6218
▁injusti	-6219
▁inquiet	-6220
▁interna	-6221
▁limitar	-6222
▁maximum	-6223
▁mayores	-6224
▁mejores	-6225
▁motions	-6226
▁neither	-6227
▁numeros	-6228
▁optimis	-6229
▁parcial	-6230
▁pequeño	-6231
▁protest	-6232
▁purpose	-6233
▁párrafo	-6234
▁pérdida	-6235
▁related	-6236
▁relieve	-6237
▁retraso	-6238
▁retroac	-6239
▁semanas	-6240
▁tercera	-6241
▁urgency	-6242
cimientos	-6243
▁American	-6244
▁Convenio	-6245
▁Entonces	-6246
▁Frassoni	-6247
▁McCarthy	-6248
▁Mientras	-6249
▁Schüssel	-6250
▁accident	-6251
▁adecuada	-6252
▁aditivos	-6253
▁approxim	-6254
▁aprovech	-6255
▁argument	-6256
▁benefits	-6257
▁cohesion	-6258
▁cohesión	-6259
▁conclude	-6260
▁controls	-6261
▁creating	-6262
▁decirles	-6263
▁edificio	-6264
▁funciona	-6265
▁hospital	-6266
▁interesa	-6267
▁plantear	-6268
▁podremos	-6269
▁polluter	-6270
▁previsto	-6271
▁probable	-6272
▁promesas	-6273
▁públicos	-6274
▁recently	-6275
▁relating	-6276
▁repercus	-6277
▁reservas	-6278
▁resource	-6279
▁respetar	-6280
▁subrayar	-6281
▁suffered	-6282
▁transfer	-6283
estructura	-6284
▁Considero	-6285
▁Directiva	-6286
▁accession	-6287
▁aceptable	-6288
▁actividad	-6289
▁actuación	-6290
▁additives	-6291
▁automóvil	-6292
▁convinced	-6293
▁desirable	-6294
▁developed	-6295
▁diciembre	-6296
▁dispuesto	-6297
▁encontrar	-6298
▁evolución	-6299
▁excessive	-6300
▁facilitar	-6301
▁gobiernos	-6302
▁imposible	-6303
▁including	-6304
▁increased	-6305
▁justified	-6306
▁naturally	-6307
▁presencia	-6308
▁prácticas	-6309
▁reciclado	-6310
▁requested	-6311
▁sanctions	-6312
▁thousands	-6313
▁transfers	-6314
▁verdadera	-6315
▁violencia	-6316
▁Aprobación	-6317
▁Poettering	-6318
▁accordance	-6319
▁additional	-6320
▁appreciate	-6321
▁competence	-6322
▁comprehens	-6323
▁compulsory	-6324
▁conclusion	-6325
▁conflictos	-6326
▁consumidor	-6327
▁contemplar	-6328
▁definitely	-6329
▁definition	-6330
▁estrategia	-6331
▁exigencias	-6332
▁industrial	-6333
▁manifiesta	-6334
▁necesarios	-6335
▁pertinente	-6336
▁provisions	-6337
▁regionales	-6338
▁regulación	-6339
▁revolution	-6340
▁solucionar	-6341
▁technology	-6342
▁votaciones	-6343
▁Furthermore	-6344
▁agricultura	-6345
▁alternative	-6346
▁democrática	-6347
▁directrices	-6348
▁fabricantes	-6349
▁institución	-6350
▁restablecer	-6351
▁socialistas	-6352
▁alimentación	-6353
▁construcción	-6354
▁coordinación	-6355
▁coordination	-6356
▁directamente	-6357
▁distribution	-6358
▁implications	-6359
▁incoherencia	-6360
▁requirements	-6361
▁effectiveness	-6362
▁evidentemente	-6363
▁explicaciones	-6364
▁manufacturers	-6365
▁parliamentary	-6366
▁conversaciones	-6367
▁presupuestaria	-6368
▁procedimientos	-6369
▁representantes	-6370
▁consideraciones	-6371
▁recommendations	-6372
.2	-6373
Be	-6374
MO	-6375
PO	-6376
au	-6377
ha	-6378
jö	-6379
ot	-6380
ub	-6381
ux	-6382
ól	-6383
Com	-6384
ara	-6385
bas	-6386
cho	-6387
cip	-6388
des	-6389
efe	-6390
erá	-6391
fav	-6392
fes	-6393
gas	-6394
gic	-6395
jar	-6396
pho	-6397
try	-6398
uit	-6399
ulo	-6400
uty	-6401
zen	-6402
énd	-6403
öld	-6404
▁33	-6405
▁90	-6406
▁ON	-6407
▁az	-6408
▁fi	-6409
▁hi	-6410
▁hy	-6411
▁mú	-6412
▁na	-6413
▁sw	-6414
▁tw	-6415
▁ut	-6416
acen	-6417
ague	-6418
anda	-6419
anza	-6420
cill	-6421
cita	-6422
erog	-6423
gará	-6424
istr	-6425
ivos	-6426
kers	-6427
know	-6428
nish	-6429
osos	-6430
plom	-6431
quis	-6432
raid	-6433
soci	-6434
taña	-6435
tics	-6436
what	-6437
yers	-6438
ólic	-6439
▁AIS	-6440
▁Ale	-6441
▁Aut	-6442
▁Bre	-6443
▁Ced	-6444
▁Cul	-6445
▁Del	-6446
▁EDD	-6447
▁EEB	-6448
▁ISA	-6449
▁Rap	-6450
▁Sjö	-6451
▁cód	-6452
▁dio	-6453
▁dro	-6454
▁déc	-6455
▁enf	-6456
▁fir	-6457
▁got	-6458
▁hip	-6459
▁ido	-6460
▁igu	-6461
▁jun	-6462
▁pie	-6463
▁río	-6464
▁scr	-6465
▁urb	-6466
▁ésa	-6467
▁étn	-6468
5-010	-6469
aland	-6470
andal	-6471
ativa	-6472
ature	-6473
bamos	-6474
batir	-6475
bourg	-6476
entan	-6477
ernos	-6478
guard	-6479
ienen	-6480
ional	-6481
kings	-6482
lined	-6483
lines	-6484
neces	-6485
sized	-6486
stedt	-6487
tacar	-6488
tados	-6489
tando	-6490
ustra	-6491
▁Alav	-6492
▁Bien	-6493
▁EURO	-6494
▁Ital	-6495
▁Sept	-6496
▁aler	-6497
▁anno	-6498
▁barr	-6499
▁bill	-6500
▁cobr	-6501
▁core	-6502
▁cuid	-6503
▁cuyo	-6504
▁debo	-6505
▁detr	-6506
▁dict	-6507
▁earn	-6508
▁exch	-6509
▁expl	-6510
▁fine	-6511
▁flag	-6512
▁half	-6513
▁impa	-6514
▁magn	-6515
▁ones	-6516
▁paid	-6517
▁pasa	-6518
▁pill	-6519
▁pilo	-6520
▁poor	-6521
▁port	-6522
▁pred	-6523
▁prud	-6524
▁remo	-6525
▁reti	-6526
▁says	-6527
▁self	-6528
▁shor	-6529
▁took	-6530
▁weap	-6531
▁époc	-6532
cement	-6533
chiöld	-6534
ecutor	-6535
encies	-6536
ension	-6537
inding	-6538
ishing	-6539
itario	-6540
tables	-6541
tively	-6542
áticas	-6543
▁Ambos	-6544
▁Clear	-6545
▁Democ	-6546
▁Dicho	-6547
▁Habrá	-6548
▁Joint	-6549
▁Segun	-6550
▁Según	-6551
▁Stras	-6552
▁accom	-6553
▁added	-6554
▁advis	-6555
▁ajust	-6556
▁along	-6557
▁among	-6558
▁apoya	-6559
▁canal	-6560
▁carta	-6561
▁citar	-6562
▁coast	-6563
▁coste	-6564
▁court	-6565
▁damos	-6566
▁daños	-6567
▁derog	-6568
▁detal	-6569
▁deten	-6570
▁dicen	-6571
▁dudas	-6572
▁entra	-6573
▁envis	-6574
▁errón	-6575
▁escal	-6576
▁escon	-6577
▁estre	-6578
▁exclu	-6579
▁forth	-6580
▁frecu	-6581
▁goals	-6582
▁holds	-6583
▁ideal	-6584
▁incid	-6585
▁leyes	-6586
▁lleva	-6587
▁lower	-6588
▁media	-6589
▁modos	-6590
▁nadie	-6591
▁olvid	-6592
▁opina	-6593
▁perpe	-6594
▁prome	-6595
▁quota	-6596
▁recop	-6597
▁retos	-6598
▁scale	-6599
▁segur	-6600
▁septi	-6601
▁serve	-6602
▁seven	-6603
▁suger	-6604
▁surpr	-6605
▁tasks	-6606
▁testi	-6607
▁touch	-6608
▁using	-6609
▁vemos	-6610
▁vigil	-6611
▁weeks	-6612
▁worse	-6613
▁áreas	-6614
▁órgan	-6615
Estamos	-6616
ibición	-6617
journed	-6618
orthern	-6619
osition	-6620
related	-6621
ócratas	-6622
▁Ceders	-6623
▁Estras	-6624
▁Having	-6625
▁Parece	-6626
▁People	-6627
▁Reform	-6628
▁Turkey	-6629
▁absten	-6630
▁affect	-6631
▁antigu	-6632
▁anyone	-6633
▁appear	-6634
▁associ	-6635
▁avance	-6636
▁bodies	-6637
▁carece	-6638
▁causas	-6639
▁centre	-6640
▁cities	-6641
▁claros	-6642
▁combin	-6643
▁creado	-6644
▁cuándo	-6645
▁debati	-6646
▁define	-6647
▁deriva	-6648
▁destac	-6649
▁destru	-6650
▁diplom	-6651
▁efectu	-6652
▁ethnic	-6653
▁extens	-6654
▁extrem	-6655
▁formal	-6656
▁fortal	-6657
▁fracas	-6658
▁fuerte	-6659
▁futura	-6660
▁grande	-6661
▁highly	-6662
▁immedi	-6663
▁immigr	-6664
▁inmigr	-6665
▁lengua	-6666
▁limita	-6667
▁listen	-6668
▁límite	-6669
▁lógico	-6670
▁merely	-6671
▁minute	-6672
▁minuto	-6673
▁moneda	-6674
▁máxima	-6675
▁método	-6676
▁origen	-6677
▁pabell	-6678
▁passed	-6679
▁perder	-6680
▁pienso	-6681
▁planes	-6682
▁plazos	-6683
▁provoc	-6684
▁quotas	-6685
▁salmon	-6686
▁semana	-6687
▁series	-6688
▁source	-6689
▁spread	-6690
▁states	-6691
▁storms	-6692
▁supply	-6693
▁tempor	-6694
▁vincul	-6695
▁wanted	-6696
Behrendt	-6697
cionados	-6698
location	-6699
▁British	-6700
▁Control	-6701
▁Finnish	-6702
▁Spanish	-6703
▁Turquía	-6704
▁Without	-6705
▁absence	-6706
▁affects	-6707
▁alcohol	-6708
▁avanzar	-6709
▁becomes	-6710
▁channel	-6711
▁citizen	-6712
▁civiles	-6713
▁climate	-6714
▁comunic	-6715
▁confirm	-6716
▁crítica	-6717
▁delante	-6718
▁depende	-6719
▁enormes	-6720
▁entorno	-6721
▁essence	-6722
▁estatal	-6723
▁explain	-6724
▁farmers	-6725
▁finland	-6726
▁francés	-6727
▁funding	-6728
▁getting	-6729
▁initial	-6730
▁inspect	-6731
▁laboral	-6732
▁logrado	-6733
▁missing	-6734
▁mission	-6735
▁obtener	-6736
▁organiz	-6737
▁outcome	-6738
▁partida	-6739
▁partido	-6740
▁pension	-6741
▁plantea	-6742
▁podrían	-6743
▁pointed	-6744
▁practic	-6745
▁prolong	-6746
▁propios	-6747
▁prosper	-6748
▁quedado	-6749
▁racismo	-6750
▁rapidez	-6751
▁realise	-6752
▁receive	-6753
▁recibir	-6754
▁reflect	-6755
▁regular	-6756
▁respeto	-6757
▁reunión	-6758
▁scrutin	-6759
▁sectors	-6760
▁superar	-6761
▁transac	-6762
▁traslad	-6763
▁waiting	-6764
▁willing	-6765
▁xenopho	-6766
ariamente	-6767
▁Alavanos	-6768
▁Alemania	-6769
▁Economic	-6770
▁Interreg	-6771
▁Relating	-6772
▁Sjöstedt	-6773
▁adecuado	-6774
▁agricult	-6775
▁campaign	-6776
▁changing	-6777
▁children	-6778
▁combatir	-6779
▁comparto	-6780
▁complejo	-6781
▁consenso	-6782
▁consolid	-6783
▁contiene	-6784
▁convenio	-6785
▁decisive	-6786
▁defender	-6787
▁desigual	-6788
▁destacar	-6789
▁disponer	-6790
▁elements	-6791
▁enormous	-6792
▁estratég	-6793
▁expuesto	-6794
▁factores	-6795
▁familiar	-6796
▁incluido	-6797
▁lograrlo	-6798
▁manifest	-6799
▁minister	-6800
▁movement	-6801
▁negativa	-6802
▁observed	-6803
▁occurred	-6804
▁partidos	-6805
▁politici	-6806
▁presenta	-6807
▁prevenir	-6808
▁producir	-6809
▁profunda	-6810
▁progreso	-6811
▁rechazar	-6812
▁recibido	-6813
▁refugees	-6814
▁separate	-6815
▁somewhat	-6816
▁speaking	-6817
▁supports	-6818
▁taxation	-6819
▁thoughts	-6820
▁threaten	-6821
▁víctimas	-6822
▁welcomed	-6823
áticamente	-6824
▁Certainly	-6825
▁Ministers	-6826
▁September	-6827
▁adjourned	-6828
▁aplicarse	-6829
▁austríaco	-6830
▁ciudadano	-6831
▁consumers	-6832
▁contribuy	-6833
▁controlar	-6834
▁cooperate	-6835
▁criticism	-6836
▁delighted	-6837
▁dirigidas	-6838
▁exclusión	-6839
▁funcionar	-6840
▁histórico	-6841
▁occasions	-6842
▁peligrosa	-6843
▁permítame	-6844
▁proposing	-6845
▁reducción	-6846
▁renewable	-6847
▁solutions	-6848
▁strategic	-6849
▁substance	-6850
▁supported	-6851
▁tendencia	-6852
▁trasvases	-6853
▁universal	-6854
▁Socialists	-6855
▁Strasbourg	-6856
▁candidatos	-6857
▁collection	-6858
▁comentario	-6859
▁complicado	-6860
▁conclusión	-6861
▁conference	-6862
▁connection	-6863
▁controvers	-6864
▁convencido	-6865
▁definición	-6866
▁directives	-6867
▁esenciales	-6868
▁esperanzas	-6869
▁estructura	-6870
▁existencia	-6871
▁existentes	-6872
▁experiment	-6873
▁guarantees	-6874
▁interested	-6875
▁justamente	-6876
▁materiales	-6877
▁mercancías	-6878
▁obligation	-6879
▁palestinos	-6880
▁peligrosas	-6881
▁pendientes	-6882
▁posiciones	-6883
▁producción	-6884
▁refugiados	-6885
▁renovables	-6886
▁revolución	-6887
▁semejantes	-6888
▁septiembre	-6889
▁structural	-6890
▁underlying	-6891
▁verdaderos	-6892
▁Estrasburgo	-6893
▁Palestinian	-6894
▁catástrofes	-6895
▁competitive	-6896
▁comprensión	-6897
▁contribuido	-6898
▁democrático	-6899
▁encouraging	-6900
▁excepciones	-6901
▁explanation	-6902
▁financieros	-6903
▁forthcoming	-6904
▁immediately	-6905
▁inmigrantes	-6906
▁integración	-6907
▁necesidades	-6908
▁responsable	-6909
▁significant	-6910
▁sustainable	-6911
▁violaciones	-6912
▁Cederschiöld	-6913
▁autorización	-6914
▁comunitarias	-6915
▁comunitarios	-6916
▁conciliation	-6917
▁conocimiento	-6918
▁considerably	-6919
▁democráticas	-6920
▁disappointed	-6921
▁implementing	-6922
▁interrumpido	-6923
▁intervention	-6924
▁manufacturer	-6925
▁observatorio	-6926
▁organización	-6927
▁satisfactory	-6928
▁specifically	-6929
▁adecuadamente	-6930
▁conjuntamente	-6931
▁globalización	-6932
▁modernización	-6933
▁planteamiento	-6934
▁administration	-6935
▁counterfeiting	-6936
▁discriminación	-6937
▁discrimination	-6938
▁extremadamente	-6939
▁liberalisation	-6940
▁reconocimiento	-6941
▁verdaderamente	-6942
▁manifestaciones	-6943
▁representatives	-6944
13	-6945
20	-6946
4.	-6947
6,	-6948
9,	-6949
Al	-6950
BB	-6951
CT	-6952
HA	-6953
PT	-6954
SU	-6955
VP	-6956
bu	-6957
iè	-6958
ko	-6959
ky	-6960
Ún	-6961
än	-6962
ít	-6963
ñe	-6964
úa	-6965
▁+	-6966
▁Ö	-6967
ATI	-6968
IDA	-6969
IPO	-6970
MEs	-6971
ONS	-6972
ale	-6973
ape	-6974
auc	-6975
aza	-6976
bic	-6977
bió	-6978
clo	-6979
eds	-6980
enó	-6981
eth	-6982
ffs	-6983
fin	-6984
gle	-6985
iba	-6986
icó	-6987
kov	-6988
leo	-6989
och	-6990
ood	-6991
orn	-6992
phy	-6993
rag	-6994
riè	-6995
sau	-6996
tit	-6997
une	-6998
val	-6999
vic	-7000
zel	-7001
áus	-7002
ñas	-7003
öge	-7004
▁34	-7005
▁38	-7006
▁44	-7007
▁Ce	-7008
▁Ef	-7009
▁Hu	-7010
▁OF	-7011
▁Pl	-7012
▁Ur	-7013
▁bi	-7014
▁Ún	-7015
-003	-7016
-005	-7017
-081	-7018
ACIS	-7019
Fuer	-7020
HARE	-7021
acer	-7022
anen	-7023
anis	-7024
anud	-7025
appe	-7026
cipl	-7027
cito	-7028
cope	-7029
edor	-7030
enty	-7031
eron	-7032
ezca	-7033
iers	-7034
ieza	-7035
iles	-7036
imen	-7037
inho	-7038
ired	-7039
iria	-7040
itio	-7041
life	-7042
lled	-7043
orld	-7044
ound	-7045
peci	-7046
pers	-7047
poul	-7048
quet	-7049
raer	-7050
raph	-7051
rats	-7052
reek	-7053
rist	-7054
tals	-7055
tega	-7056
tled	-7057
trar	-7058
uedo	-7059
ulio	-7060
umpe	-7061
urar	-7062
uras	-7063
vere	-7064
▁10%	-7065
▁150	-7066
▁20%	-7067
▁45.	-7068
▁613	-7069
▁ABB	-7070
▁Atx	-7071
▁Bab	-7072
▁Bow	-7073
▁CSU	-7074
▁Cox	-7075
▁Def	-7076
▁Env	-7077
▁Era	-7078
▁Han	-7079
▁III	-7080
▁Its	-7081
▁Jon	-7082
▁Leg	-7083
▁Mod	-7084
▁Muy	-7085
▁Más	-7086
▁Nas	-7087
▁Nav	-7088
▁New	-7089
▁ONU	-7090
▁PYM	-7091
▁Sea	-7092
▁Sta	-7093
▁Sud	-7094
▁Tom	-7095
▁Tre	-7096
▁Vac	-7097
▁alc	-7098
▁bom	-7099
▁fif	-7100
▁gan	-7101
▁hal	-7102
▁hol	-7103
▁ley	-7104
▁mam	-7105
▁non	-7106
▁ran	-7107
▁ros	-7108
▁rég	-7109
▁sól	-7110
▁tol	-7111
▁und	-7112
▁uns	-7113
▁upd	-7114
▁via	-7115
▁vál	-7116
▁win	-7117
▁ÖVP	-7118
5-016	-7119
ANATI	-7120
Puede	-7121
abaso	-7122
alest	-7123
angen	-7124
anges	-7125
echen	-7126
erram	-7127
glish	-7128
gress	-7129
ieran	-7130
ierta	-7131
ietro	-7132
intas	-7133
ision	-7134
itate	-7135
itten	-7136
iture	-7137
limin	-7138
mendo	-7139
ortes	-7140
oured	-7141
point	-7142
rière	-7143
tadas	-7144
vares	-7145
verse	-7146
works	-7147
zando	-7148
ítulo	-7149
órica	-7150
▁Brok	-7151
▁Böge	-7152
▁Cier	-7153
▁Diam	-7154
▁Dühr	-7155
▁Exam	-7156
▁Food	-7157
▁Gaza	-7158
▁Jord	-7159
▁July	-7160
▁Koch	-7161
▁Liik	-7162
▁OTAN	-7163
▁Pido	-7164
▁Prop	-7165
▁Pues	-7166
▁Russ	-7167
▁SIDA	-7168
▁SMEs	-7169
▁Turk	-7170
▁Very	-7171
▁abog	-7172
▁acts	-7173
▁acus	-7174
▁ahor	-7175
▁arro	-7176
▁ases	-7177
▁aver	-7178
▁casi	-7179
▁chem	-7180
▁cora	-7181
▁diss	-7182
▁doss	-7183
▁duty	-7184
▁ecos	-7185
▁efec	-7186
▁efic	-7187
▁elev	-7188
▁else	-7189
▁fate	-7190
▁foro	-7191
▁geno	-7192
▁hizo	-7193
▁irre	-7194
▁isol	-7195
▁kill	-7196
▁lose	-7197
▁marc	-7198
▁obra	-7199
▁ofic	-7200
▁opon	-7201
▁pesc	-7202
▁pled	-7203
▁quím	-7204
▁rati	-7205
▁redu	-7206
▁reli	-7207
▁repl	-7208
▁scra	-7209
▁seno	-7210
▁slic	-7211
▁slow	-7212
▁surg	-7213
▁tack	-7214
▁tasa	-7215
▁town	-7216
▁unán	-7217
▁uran	-7218
▁vari	-7219
▁warm	-7220
1/00):	-7221
5-0003	-7222
5/99):	-7223
6/00):	-7224
7/00):	-7225
Europe	-7226
adezco	-7227
appear	-7228
ciente	-7229
elling	-7230
favore	-7231
iempre	-7232
ocemos	-7233
orders	-7234
osevic	-7235
ourage	-7236
poulou	-7237
yright	-7238
ública	-7239
▁Amado	-7240
▁Compe	-7241
▁Flora	-7242
▁Gales	-7243
▁Greek	-7244
▁Karas	-7245
▁Norte	-7246
▁PHARE	-7247
▁Pleno	-7248
▁Puedo	-7249
▁Siria	-7250
▁Syria	-7251
▁TACIS	-7252
▁Those	-7253
▁Todas	-7254
▁Wales	-7255
▁acojo	-7256
▁adequ	-7257
▁adver	-7258
▁advoc	-7259
▁alban	-7260
▁alegr	-7261
▁arbit	-7262
▁audit	-7263
▁built	-7264
▁calls	-7265
▁caute	-7266
▁claim	-7267
▁class	-7268
▁cláus	-7269
▁creer	-7270
▁cross	-7271
▁delin	-7272
▁dinám	-7273
▁disag	-7274
▁débil	-7275
▁efici	-7276
▁equip	-7277
▁exemp	-7278
▁exped	-7279
▁femen	-7280
▁fewer	-7281
▁firme	-7282
▁hacía	-7283
▁hayan	-7284
▁highl	-7285
▁hypoc	-7286
▁ignor	-7287
▁incum	-7288
▁infer	-7289
▁insur	-7290
▁judge	-7291
▁julio	-7292
▁justa	-7293
▁known	-7294
▁liter	-7295
▁moral	-7296
▁neigh	-7297
▁persu	-7298
▁pilar	-7299
▁podía	-7300
▁prosp	-7301
▁radic	-7302
▁range	-7303
▁ready	-7304
▁redes	-7305
▁saben	-7306
▁sacar	-7307
▁siglo	-7308
▁signs	-7309
▁sitio	-7310
▁south	-7311
▁sugar	-7312
▁table	-7313
▁tenía	-7314
▁tipos	-7315
▁trend	-7316
▁turba	-7317
▁valid	-7318
▁venta	-7319
▁visit	-7320
▁votes	-7321
▁watch	-7322
▁widen	-7323
▁worst	-7324
▁Éstas	-7325
▁época	-7326
1/2000)	-7327
5/2000)	-7328
6/2000)	-7329
9/2000)	-7330
Fuertes	-7331
cidades	-7332
nerable	-7333
ostiaga	-7334
quierda	-7335
ristmas	-7336
tividad	-7337
uestran	-7338
visible	-7339
ísticas	-7340
▁Babits	-7341
▁Davies	-7342
▁Decour	-7343
▁Ladies	-7344
▁Langen	-7345
▁Lastly	-7346
▁Markov	-7347
▁Michel	-7348
▁Nassau	-7349
▁Ortega	-7350
▁Pietro	-7351
▁Presup	-7352
▁Reanud	-7353
▁Solbes	-7354
▁Sweden	-7355
▁Vaclav	-7356
▁adopte	-7357
▁afraid	-7358
▁alcanz	-7359
▁almost	-7360
▁announ	-7361
▁apenas	-7362
▁aplaud	-7363
▁aprueb	-7364
▁aspira	-7365
▁attrac	-7366
▁ayudar	-7367
▁beyond	-7368
▁bloque	-7369
▁breves	-7370
▁buques	-7371
▁carter	-7372
▁cifras	-7373
▁citado	-7374
▁claras	-7375
▁comité	-7376
▁commer	-7377
▁compet	-7378
▁consul	-7379
▁correo	-7380
▁cuotas	-7381
▁debido	-7382
▁desear	-7383
▁devast	-7384
▁direct	-7385
▁década	-7386
▁easier	-7387
▁elegir	-7388
▁enviar	-7389
▁figura	-7390
▁forget	-7391
▁fraude	-7392
▁fueron	-7393
▁giving	-7394
▁harmon	-7395
▁herram	-7396
▁impose	-7397
▁intens	-7398
▁lapses	-7399
▁marine	-7400
▁metals	-7401
▁mismas	-7402
▁moving	-7403
▁negoci	-7404
▁partly	-7405
▁perten	-7406
▁quanti	-7407
▁recurr	-7408
▁reiter	-7409
▁resuel	-7410
▁secure	-7411
▁sencil	-7412
▁senior	-7413
▁spirit	-7414
▁spoken	-7415
▁strict	-7416
▁string	-7417
▁summit	-7418
▁suprim	-7419
▁trying	-7420
▁urbana	-7421
▁waters	-7422
ANATIONS	-7423
amientos	-7424
osovares	-7425
standing	-7426
truction	-7427
▁Bretaña	-7428
▁Chechen	-7429
▁Clearly	-7430
▁Declaro	-7431
▁Dührkop	-7432
▁English	-7433
▁Germany	-7434
▁Justice	-7435
▁Marinho	-7436
▁Resulta	-7437
▁Seattle	-7438
▁Siempre	-7439
▁Stenzel	-7440
▁Swedish	-7441
▁agentes	-7442
▁alcance	-7443
▁amended	-7444
▁antigua	-7445
▁appears	-7446
▁autonom	-7447
▁century	-7448
▁changed	-7449
▁conocer	-7450
▁contrac	-7451
▁correos	-7452
▁cuentan	-7453
▁cuentas	-7454
▁debated	-7455
▁debilit	-7456
▁defiend	-7457
▁definir	-7458
▁delayed	-7459
▁deplore	-7460
▁details	-7461
▁discipl	-7462
▁divided	-7463
▁enforce	-7464
▁entrada	-7465
▁erradic	-7466
▁especul	-7467
▁expreso	-7468
▁extrema	-7469
▁feeling	-7470
▁finales	-7471
▁illustr	-7472
▁implica	-7473
▁indicar	-7474
▁ingreso	-7475
▁iniciar	-7476
▁lamento	-7477
▁mención	-7478
▁metales	-7479
▁métodos	-7480
▁ocurrió	-7481
▁oficial	-7482
▁ofrecer	-7483
▁pedimos	-7484
▁permiti	-7485
▁persegu	-7486
▁plenary	-7487
▁promote	-7488
▁propiet	-7489
▁pudiera	-7490
▁querría	-7491
▁rechazo	-7492
▁refleja	-7493
▁revisar	-7494
▁régimen	-7495
▁señales	-7496
▁sustitu	-7497
▁systema	-7498
▁targets	-7499
▁tragedy	-7500
▁técnica	-7501
▁veremos	-7502
▁visible	-7503
▁workers	-7504
▁written	-7505
ceramente	-7506
▁Although	-7507
▁Assembly	-7508
▁Atxaland	-7509
▁Diamanto	-7510
▁Liikanen	-7511
▁Regional	-7512
▁Republic	-7513
▁Treaties	-7514
▁acertado	-7515
▁adoption	-7516
▁although	-7517
▁ambicios	-7518
▁applying	-7519
▁approval	-7520
▁avanzado	-7521
▁becoming	-7522
▁chemical	-7523
▁concluir	-7524
▁confined	-7525
▁críticas	-7526
▁cualific	-7527
▁decisivo	-7528
▁declared	-7529
▁delivery	-7530
▁deseable	-7531
▁detailed	-7532
▁diciendo	-7533
▁directly	-7534
▁disposal	-7535
▁eficaces	-7536
▁entiendo	-7537
▁estudios	-7538
▁evidence	-7539
▁exchange	-7540
▁exercise	-7541
▁expected	-7542
▁felicito	-7543
▁hablamos	-7544
▁historic	-7545
▁incomple	-7546
▁language	-7547
▁materias	-7548
▁meetings	-7549
▁mientras	-7550
▁momentos	-7551
▁mostrado	-7552
▁muestran	-7553
▁negative	-7554
▁networks	-7555
▁ocurrido	-7556
▁overcome	-7557
▁prelimin	-7558
▁preocupa	-7559
▁produced	-7560
▁promised	-7561
▁proponen	-7562
▁próximas	-7563
▁reaction	-7564
▁retirada	-7565
▁rigorous	-7566
▁substitu	-7567
▁surround	-7568
▁tremendo	-7569
▁términos	-7570
▁violence	-7571
▁voluntar	-7572
▁withdraw	-7573
tructuring	-7574
▁Agradezco	-7575
▁Christmas	-7576
▁Financial	-7577
▁Milosevic	-7578
▁Ministros	-7579
▁Procedure	-7580
▁República	-7581
▁Seguridad	-7582
▁Socialist	-7583
▁Solamente	-7584
▁alimentos	-7585
▁ambicioso	-7586
▁categoría	-7587
▁character	-7588
▁committed	-7589
▁comprobar	-7590
▁concretos	-7591
▁deadlines	-7592
▁decentral	-7593
▁described	-7594
▁desfavore	-7595
▁dimension	-7596
▁disappear	-7597
▁discusión	-7598
▁ecológica	-7599
▁electoral	-7600
▁elementos	-7601
▁emergency	-7602
▁encourage	-7603
▁esperanza	-7604
▁estimados	-7605
▁exclusion	-7606
▁increment	-7607
▁indicated	-7608
▁instancia	-7609
▁knowledge	-7610
▁labelling	-7611
▁miércoles	-7612
▁modificar	-7613
▁necesitan	-7614
▁neighbour	-7615
▁obligator	-7616
▁pensiones	-7617
▁perfectly	-7618
▁podríamos	-7619
▁positions	-7620
▁positivos	-7621
▁realistas	-7622
▁sanciones	-7623
▁satisface	-7624
▁suggested	-7625
▁territory	-7626
▁tolerable	-7627
▁undertake	-7628
▁verdadero	-7629
▁withdrawn	-7630
▁Gorostiaga	-7631
▁Obviamente	-7632
▁Resumption	-7633
▁aprovechar	-7634
▁asistencia	-7635
▁asociación	-7636
▁businesses	-7637
▁comprender	-7638
▁conciencia	-7639
▁consciente	-7640
▁consistent	-7641
▁continente	-7642
▁continuing	-7643
▁descentral	-7644
▁desempeñar	-7645
▁developing	-7646
▁dispuestos	-7647
▁finlandesa	-7648
▁governance	-7649
▁habitantes	-7650
▁immigrants	-7651
▁inspection	-7652
▁interrumpe	-7653
▁participan	-7654
▁permanente	-7655
▁presidency	-7656
▁proporcion	-7657
▁reaccionar	-7658
▁respuestas	-7659
▁structures	-7660
▁territorio	-7661
▁throughout	-7662
▁xenophobic	-7663
▁Decourrière	-7664
▁Reanudación	-7665
▁automóviles	-7666
▁básicamente	-7667
▁commitments	-7668
▁compromisos	-7669
▁concentrate	-7670
▁establecido	-7671
▁estructuras	-7672
▁examination	-7673
▁independent	-7674
▁intolerable	-7675
▁involvement	-7676
▁parliaments	-7677
▁perspective	-7678
▁prohibición	-7679
▁representan	-7680
▁supervision	-7681
▁Consequently	-7682
▁EXPLANATIONS	-7683
▁Palestinians	-7684
▁conveniencia	-7685
▁determinadas	-7686
▁expectativas	-7687
▁explanations	-7688
▁humanitarian	-7689
▁organisation	-7690
▁perspectivas	-7691
▁relacionadas	-7692
▁relationship	-7693
▁resoluciones	-7694
▁subvenciones	-7695
estructuración	-7696
▁Atxalandabaso	-7697
▁Efectivamente	-7698
▁comprehensive	-7699
▁declaraciones	-7700
▁efectivamente	-7701
▁enérgicamente	-7702
▁probablemente	-7703
▁restructuring	-7704
▁understanding	-7705
▁Diamantopoulou	-7706
▁agradecimiento	-7707
▁modificaciones	-7708
▁acontecimientos	-7709
▁aproximadamente	-7710
",	-7711
3.	-7712
50	-7713
?"	-7714
EU	-7715
IB	-7716
TA	-7717
ex	-7718
vi	-7719
éd	-7720
▁?	-7721
.05	-7722
.50	-7723
.55	-7724
DAC	-7725
MOs	-7726
Pod	-7727
Van	-7728
abe	-7729
ajo	-7730
alá	-7731
asp	-7732
bol	-7733
cae	-7734
cra	-7735
eas	-7736
edo	-7737
got	-7738
grá	-7739
icy	-7740
ifi	-7741
ift	-7742
iga	-7743
jes	-7744
oca	-7745
pay	-7746
pin	-7747
pus	-7748
rid	-7749
stu	-7750
two	-7751
uos	-7752
yed	-7753
yst	-7754
zón	-7755
üen	-7756
▁22	-7757
▁26	-7758
▁27	-7759
▁4,	-7760
▁Cá	-7761
▁Ev	-7762
▁Gu	-7763
▁Tí	-7764
▁Va	-7765
▁Vo	-7766
▁iz	-7767
▁os	-7768
▁ár	-7769
Está	-7770
Pien	-7771
anch	-7772
anqu	-7773
astr	-7774
atic	-7775
aves	-7776
bers	-7777
cura	-7778
cuse	-7779
cómo	-7780
eder	-7781
edir	-7782
eses	-7783
esto	-7784
fare	-7785
ford	-7786
hear	-7787
ibet	-7788
ibly	-7789
icip	-7790
icop	-7791
icóp	-7792
iday	-7793
imas	-7794
imit	-7795
isen	-7796
itán	-7797
jalá	-7798
look	-7799
mara	-7800
onen	-7801
onst	-7802
orpr	-7803
orse	-7804
oría	-7805
outh	-7806
quir	-7807
risy	-7808
rown	-7809
ster	-7810
tirá	-7811
tise	-7812
uena	-7813
ueve	-7814
uine	-7815
usto	-7816
wers	-7817
ynam	-7818
émos	-7819
íble	-7820
ñada	-7821
úcar	-7822
▁10.	-7823
▁13,	-7824
▁14,	-7825
▁18,	-7826
▁25%	-7827
▁37,	-7828
▁80%	-7829
▁Ahí	-7830
▁Aud	-7831
▁Cas	-7832
▁Col	-7833
▁Doy	-7834
▁Inv	-7835
▁Jap	-7836
▁Mis	-7837
▁PIB	-7838
▁Rac	-7839
▁Sue	-7840
▁Ven	-7841
▁age	-7842
▁cli	-7843
▁eta	-7844
▁eti	-7845
▁lev	-7846
▁lun	-7847
▁luz	-7848
▁mas	-7849
▁mem	-7850
▁mol	-7851
▁mun	-7852
▁nut	-7853
▁occ	-7854
▁pic	-7855
▁rom	-7856
▁sad	-7857
▁sch	-7858
▁spl	-7859
▁tim	-7860
▁une	-7861
▁unw	-7862
▁vay	-7863
▁vec	-7864
▁voz	-7865
Dónde	-7866
adera	-7867
aludo	-7868
ammes	-7869
antar	-7870
anted	-7871
cales	-7872
ciles	-7873
cking	-7874
clear	-7875
cluso	-7876
condi	-7877
emici	-7878
enófo	-7879
estim	-7880
guien	-7881
horab	-7882
iloso	-7883
istan	-7884
itors	-7885
izada	-7886
jeros	-7887
lands	-7888
ocres	-7889
oples	-7890
ouble	-7891
pping	-7892
queza	-7893
reach	-7894
regir	-7895
retar	-7896
reyer	-7897
rollo	-7898
tante	-7899
teros	-7900
tidas	-7901
uncia	-7902
usual	-7903
venes	-7904
ético	-7905
ífica	-7906
üenza	-7907
▁1992	-7908
▁Adop	-7909
▁Alto	-7910
▁Apar	-7911
▁Belg	-7912
▁Bern	-7913
▁Dado	-7914
▁Each	-7915
▁Ello	-7916
▁Evid	-7917
▁Fish	-7918
▁GMOs	-7919
▁Gine	-7920
▁Have	-7921
▁Indi	-7922
▁Lord	-7923
▁Mira	-7924
▁Need	-7925
▁País	-7926
▁Prot	-7927
▁Rule	-7928
▁Serv	-7929
▁Tour	-7930
▁Tras	-7931
▁Unas	-7932
▁VOTO	-7933
▁Vice	-7934
▁acto	-7935
▁anon	-7936
▁apun	-7937
▁basa	-7938
▁buro	-7939
▁code	-7940
▁comm	-7941
▁daño	-7942
▁depr	-7943
▁died	-7944
▁diez	-7945
▁dign	-7946
▁dile	-7947
▁dism	-7948
▁draf	-7949
▁edad	-7950
▁enci	-7951
▁envi	-7952
▁exag	-7953
▁feas	-7954
▁feli	-7955
▁felt	-7956
▁fres	-7957
▁gana	-7958
▁gest	-7959
▁glad	-7960
▁head	-7961
▁hici	-7962
▁hide	-7963
▁inse	-7964
▁keen	-7965
▁land	-7966
▁laun	-7967
▁mass	-7968
▁noti	-7969
▁otor	-7970
▁pied	-7971
▁pone	-7972
▁reca	-7973
▁resc	-7974
▁road	-7975
▁seek	-7976
▁sets	-7977
▁sole	-7978
▁soul	-7979
▁spar	-7980
▁stra	-7981
▁subs	-7982
▁tigh	-7983
▁tram	-7984
▁unil	-7985
▁util	-7986
▁vent	-7987
▁vías	-7988
Presid	-7989
action	-7990
adoras	-7991
americ	-7992
antado	-7993
antial	-7994
astern	-7995
echnya	-7996
edades	-7997
ession	-7998
iental	-7999
iernes	-8000
ingdom	-8001
ispens	-8002
itable	-8003
itoría	-8004
landes	-8005
lantic	-8006
misión	-8007
onstra	-8008
osofía	-8009
stuffs	-8010
ternal	-8011
tition	-8012
titude	-8013
unciar	-8014
▁1996.	-8015
▁1998,	-8016
▁2002.	-8017
▁Andal	-8018
▁Común	-8019
▁Monet	-8020
▁Nunca	-8021
▁Organ	-8022
▁Party	-8023
▁Pesca	-8024
▁Recon	-8025
▁Rules	-8026
▁Tanto	-8027
▁Tibet	-8028
▁Total	-8029
▁Tíbet	-8030
▁acted	-8031
▁alarm	-8032
▁altos	-8033
▁ambas	-8034
▁armas	-8035
▁atent	-8036
▁autén	-8037
▁block	-8038
▁bound	-8039
▁check	-8040
▁coche	-8041
▁conce	-8042
▁crime	-8043
▁culpa	-8044
▁curso	-8045
▁darse	-8046
▁decae	-8047
▁desac	-8048
▁digno	-8049
▁drama	-8050
▁dynam	-8051
▁estad	-8052
▁estuv	-8053
▁estén	-8054
▁faced	-8055
▁fines	-8056
▁fores	-8057
▁grasp	-8058
▁habla	-8059
▁hagan	-8060
▁hijos	-8061
▁honor	-8062
▁idone	-8063
▁infra	-8064
▁insta	-8065
▁looks	-8066
▁mista	-8067
▁niños	-8068
▁noche	-8069
▁nombr	-8070
▁north	-8071
▁noted	-8072
▁obras	-8073
▁obstá	-8074
▁obten	-8075
▁obvio	-8076
▁pagan	-8077
▁paral	-8078
▁pasos	-8079
▁phase	-8080
▁piens	-8081
▁plano	-8082
▁pocas	-8083
▁prere	-8084
▁press	-8085
▁proof	-8086
▁rango	-8087
▁recog	-8088
▁scope	-8089
▁seria	-8090
▁shame	-8091
▁ships	-8092
▁silen	-8093
▁sirve	-8094
▁sorpr	-8095
▁spoke	-8096
▁steel	-8097
▁stock	-8098
▁story	-8099
▁talks	-8100
▁tendr	-8101
▁torno	-8102
▁types	-8103
▁uncer	-8104
▁vacun	-8105
▁viene	-8106
▁whose	-8107
ception	-8108
entante	-8109
eración	-8110
ilación	-8111
mediate	-8112
ocresía	-8113
ológica	-8114
quetado	-8115
rastruc	-8116
titutes	-8117
vention	-8118
▁Aunque	-8119
▁Basque	-8120
▁Berend	-8121
▁Berlin	-8122
▁Berlín	-8123
▁Danish	-8124
▁Danube	-8125
▁EXPLIC	-8126
▁Friday	-8127
▁Grecia	-8128
▁Greece	-8129
▁Jordan	-8130
▁Ningún	-8131
▁Policy	-8132
▁Safety	-8133
▁Saludo	-8134
▁Suecia	-8135
▁Tienen	-8136
▁acknow	-8137
▁adquir	-8138
▁afford	-8139
▁agrees	-8140
▁americ	-8141
▁amplia	-8142
▁anunci	-8143
▁apolog	-8144
▁apreci	-8145
▁apropi	-8146
▁arbitr	-8147
▁arisen	-8148
▁arrang	-8149
▁asumir	-8150
▁azúcar	-8151
▁basada	-8152
▁battle	-8153
▁britán	-8154
▁buenos	-8155
▁buscar	-8156
▁caused	-8157
▁centro	-8158
▁choice	-8159
▁ciento	-8160
▁cierta	-8161
▁combat	-8162
▁compañ	-8163
▁confío	-8164
▁cuidad	-8165
▁código	-8166
▁denied	-8167
▁deserv	-8168
▁detall	-8169
▁dichas	-8170
▁dichos	-8171
▁distin	-8172
▁entrañ	-8173
▁escala	-8174
▁esfera	-8175
▁estará	-8176
▁excuse	-8177
▁exista	-8178
▁expend	-8179
▁faster	-8180
▁fellow	-8181
▁figure	-8182
▁formar	-8183
▁gender	-8184
▁honest	-8185
▁humana	-8186
▁ilustr	-8187
▁impuls	-8188
▁inclus	-8189
▁indios	-8190
▁issued	-8191
▁leaves	-8192
▁levels	-8193
▁likely	-8194
▁llamar	-8195
▁llegue	-8196
▁manage	-8197
▁margin	-8198
▁marked	-8199
▁muerte	-8200
▁neglig	-8201
▁ocupar	-8202
▁paying	-8203
▁pobres	-8204
▁prensa	-8205
▁profes	-8206
▁pronto	-8207
▁propós	-8208
▁proven	-8209
▁puesta	-8210
▁purely	-8211
▁quedan	-8212
▁quedar	-8213
▁querer	-8214
▁quince	-8215
▁quoted	-8216
▁reduce	-8217
▁refuse	-8218
▁relate	-8219
▁retira	-8220
▁return	-8221
▁rápido	-8222
▁seamos	-8223
▁servir	-8224
▁señaló	-8225
▁siento	-8226
▁signed	-8227
▁slight	-8228
▁socios	-8229
▁specul	-8230
▁submit	-8231
▁surely	-8232
▁suscep	-8233
▁symbol	-8234
▁taxpay	-8235
▁transl	-8236
▁unidad	-8237
▁virtud	-8238
▁vuelva	-8239
▁xenófo	-8240
alestina	-8241
emiciclo	-8242
icopters	-8243
iculture	-8244
istentes	-8245
itiative	-8246
lamiento	-8247
ointment	-8248
ological	-8249
parently	-8250
reaching	-8251
trucción	-8252
▁Britain	-8253
▁Cuentas	-8254
▁Danubio	-8255
▁EURODAC	-8256
▁General	-8257
▁Ginebra	-8258
▁Humanos	-8259
▁Instead	-8260
▁Kingdom	-8261
▁Primera	-8262
▁Tourism	-8263
▁abierto	-8264
▁ability	-8265
▁acertad	-8266
▁adaptar	-8267
▁admitir	-8268
▁albanok	-8269
▁alguien	-8270
▁amounts	-8271
▁amplias	-8272
▁anticip	-8273
▁billion	-8274
▁borders	-8275
▁calling	-8276
▁ciertas	-8277
▁clarity	-8278
▁closely	-8279
▁comités	-8280
▁corazón	-8281
▁courage	-8282
▁covered	-8283
▁decirle	-8284
▁delincu	-8285
▁delitos	-8286
▁denomin	-8287
▁desired	-8288
▁desperd	-8289
▁despite	-8290
▁detener	-8291
▁drastic	-8292
▁drawing	-8293
▁elegido	-8294
▁emprend	-8295
▁endorse	-8296
▁engaged	-8297
▁evening	-8298
▁existir	-8299
▁extremo	-8300
▁factors	-8301
▁failure	-8302
▁fifteen	-8303
▁finding	-8304
▁focused	-8305
▁follows	-8306
▁fomento	-8307
▁futuras	-8308
▁genuine	-8309
▁grammes	-8310
▁guerras	-8311
▁hacerle	-8312
▁hearing	-8313
▁helicóp	-8314
▁hundred	-8315
▁legally	-8316
▁límites	-8317
▁massive	-8318
▁merecen	-8319
▁methods	-8320
▁municip	-8321
▁nations	-8322
▁ocupado	-8323
▁operate	-8324
▁opposed	-8325
▁passing	-8326
▁penalty	-8327
▁peoples	-8328
▁perform	-8329
▁perpetr	-8330
▁pesados	-8331
▁philoso	-8332
▁pledges	-8333
▁precise	-8334
▁prepara	-8335
▁preserv	-8336
▁privada	-8337
▁propici	-8338
▁querido	-8339
▁realiza	-8340
▁referir	-8341
▁resulte	-8342
▁rightly	-8343
▁riguros	-8344
▁riqueza	-8345
▁scandal	-8346
▁señores	-8347
▁studies	-8348
▁tendrán	-8349
▁termina	-8350
▁tiempos	-8351
▁trataba	-8352
▁vehicle	-8353
▁wording	-8354
▁worried	-8355
horabuena	-8356
ulturales	-8357
▁Adoption	-8358
▁Auditors	-8359
▁Chechnya	-8360
▁Comparto	-8361
▁Constitu	-8362
▁Especial	-8363
▁Eurojust	-8364
▁Justicia	-8365
▁Needless	-8366
▁Protocol	-8367
▁Schreyer	-8368
▁Seguimos	-8369
▁activity	-8370
▁adopting	-8371
▁advocate	-8372
▁ambición	-8373
▁ambition	-8374
▁balanced	-8375
▁cambiado	-8376
▁capacity	-8377
▁caracter	-8378
▁channels	-8379
▁cláusula	-8380
▁comentar	-8381
▁completo	-8382
▁conceder	-8383
▁conducir	-8384
▁conducta	-8385
▁conjunta	-8386
▁consulta	-8387
▁contempl	-8388
▁contents	-8389
▁conviene	-8390
▁correcto	-8391
▁corregir	-8392
▁credible	-8393
▁criterio	-8394
▁decidido	-8395
▁defended	-8396
▁defiende	-8397
▁delicada	-8398
▁deseamos	-8399
▁detalles	-8400
▁discurso	-8401
▁diversas	-8402
▁electrón	-8403
▁energías	-8404
▁entender	-8405
▁enérgica	-8406
▁excesivo	-8407
▁explicar	-8408
▁extremis	-8409
▁factible	-8410
▁feasible	-8411
▁financed	-8412
▁fiscales	-8413
▁incluyen	-8414
▁incorrec	-8415
▁inferior	-8416
▁integral	-8417
▁jurisdic	-8418
▁llamados	-8419
▁llevarse	-8420
▁marítimo	-8421
▁minorías	-8422
▁mobility	-8423
▁obtained	-8424
▁ocuparme	-8425
▁officers	-8426
▁oficinas	-8427
▁oportuno	-8428
▁oradores	-8429
▁overlook	-8430
▁parecido	-8431
▁pequeños	-8432
▁pesquera	-8433
▁posibles	-8434
▁primeros	-8435
▁procesos	-8436
▁proponer	-8437
▁provides	-8438
▁públicas	-8439
▁químicas	-8440
▁racistas	-8441
▁rational	-8442
▁reforzar	-8443
▁remediar	-8444
▁republic	-8445
▁resolved	-8446
▁resolver	-8447
▁responde	-8448
▁restrict	-8449
▁retrasos	-8450
▁scrutiny	-8451
▁sencillo	-8452
▁sensible	-8453
▁sucedido	-8454
▁terceros	-8455
▁tratados	-8456
▁técnicos	-8457
▁urgently	-8458
▁whatever	-8459
▁worrying	-8460
sification	-8461
▁Agreement	-8462
▁Budgetary	-8463
▁Chechenia	-8464
▁Finlandia	-8465
▁Otherwise	-8466
▁Paritaria	-8467
▁afectadas	-8468
▁announced	-8469
▁aplicable	-8470
▁argumento	-8471
▁auditoría	-8472
▁autoridad	-8473
▁beneficio	-8474
▁budgetary	-8475
▁colleague	-8476
▁complaint	-8477
▁comprendo	-8478
▁conservar	-8479
▁considera	-8480
▁deberemos	-8481
▁demonstra	-8482
▁derivados	-8483
▁destacado	-8484
▁destroyed	-8485
▁determine	-8486
▁ecológico	-8487
▁education	-8488
▁erradicar	-8489
▁evidencia	-8490
▁extension	-8491
▁filosofía	-8492
▁financiar	-8493
▁formulado	-8494
▁governing	-8495
▁gradually	-8496
▁hypocrisy	-8497
▁idoneidad	-8498
▁inclusión	-8499
▁indispens	-8500
▁influence	-8501
▁izquierda	-8502
▁judgement	-8503
▁movilidad	-8504
▁nationals	-8505
▁numerosas	-8506
▁organised	-8507
▁permanent	-8508
▁positivas	-8509
▁practices	-8510
▁prerequis	-8511
▁presentes	-8512
▁produzcan	-8513
▁promoting	-8514
▁prospects	-8515
▁realistic	-8516
▁reduction	-8517
▁relativas	-8518
▁relativos	-8519
▁respected	-8520
▁selective	-8521
▁sensación	-8522
▁sensitive	-8523
▁simplific	-8524
▁transcurr	-8525
▁unanimity	-8526
▁unanimous	-8527
▁vergüenza	-8528
▁wholehear	-8529
▁Deberíamos	-8530
▁Resolución	-8531
▁accidentes	-8532
▁cantidades	-8533
▁codecisión	-8534
▁commercial	-8535
▁compliment	-8536
▁congratulo	-8537
▁consideran	-8538
▁considerar	-8539
▁corrupción	-8540
▁demasiadas	-8541
▁demostrado	-8542
▁directivas	-8543
▁encontrado	-8544
▁etiquetado	-8545
▁evaluation	-8546
▁finalmente	-8547
▁frecuencia	-8548
▁hipocresía	-8549
▁igualmente	-8550
▁illustrate	-8551
▁imperativo	-8552
▁impression	-8553
▁incremento	-8554
▁infrastruc	-8555
▁injustific	-8556
▁intentions	-8557
▁mainstream	-8558
▁manifestar	-8559
▁manifiesto	-8560
▁membership	-8561
▁objections	-8562
▁ocurriendo	-8563
▁organismos	-8564
▁precedente	-8565
▁preparados	-8566
▁procedural	-8567
▁remarkable	-8568
▁scoreboard	-8569
▁seriamente	-8570
▁solicitado	-8571
▁sostenible	-8572
▁substitute	-8573
▁suggestion	-8574
▁television	-8575
▁televisión	-8576
▁trabajando	-8577
▁transition	-8578
▁ultimately	-8579
▁unanimidad	-8580
▁undertaken	-8581
▁violations	-8582
▁Únicamente	-8583
▁Ciertamente	-8584
▁Environment	-8585
▁alternativa	-8586
▁association	-8587
▁complicated	-8588
▁comprometer	-8589
▁compromises	-8590
▁constitutes	-8591
▁convergence	-8592
▁convertirse	-8593
▁derivatives	-8594
▁determinado	-8595
▁diferencias	-8596
▁differences	-8597
▁distribuida	-8598
▁effectively	-8599
▁elaboración	-8600
▁equivalente	-8601
▁específicos	-8602
▁estratégico	-8603
▁expenditure	-8604
▁felicitando	-8605
▁generations	-8606
▁highlighted	-8607
▁incoherence	-8608
▁inseguridad	-8609
▁institution	-8610
▁intervenido	-8611
▁inversiones	-8612
▁justificada	-8613
▁legislativo	-8614
▁llamamiento	-8615
▁manifestado	-8616
▁norteameric	-8617
▁obligatorio	-8618
▁parlamentos	-8619
▁preguntarle	-8620
▁presentadas	-8621
▁productores	-8622
▁realización	-8623
▁reflexionar	-8624
▁relacionada	-8625
▁satisfactor	-8626
▁seguimiento	-8627
▁substantial	-8628
▁susceptible	-8629
▁armonización	-8630
▁conservación	-8631
▁contradictor	-8632
▁convergencia	-8633
▁decepcionado	-8634
▁deficiencias	-8635
▁desaparecido	-8636
▁helicópteros	-8637
▁improvements	-8638
▁independence	-8639
▁insufficient	-8640
▁introducción	-8641
▁presentation	-8642
▁proporcionar	-8643
▁relacionados	-8644
▁significance	-8645
▁successfully	-8646
▁transmission	-8647
▁undertakings	-8648
▁EXPLICACIONES	-8649
▁Evidentemente	-8650
▁International	-8651
▁Representante	-8652
▁acertadamente	-8653
▁approximately	-8654
▁clarification	-8655
▁contradicción	-8656
▁contradiction	-8657
▁desigualdades	-8658
▁globalisation	-8659
▁independencia	-8660
▁informaciones	-8661
▁modernisation	-8662
▁orientaciones	-8663
▁recomendación	-8664
▁repercusiones	-8665
▁Representative	-8666
▁administrative	-8667
▁congratulating	-8668
▁desfavorecidos	-8669
▁funcionamiento	-8670
▁independientes	-8671
▁interpretación	-8672
▁intervenciones	-8673
▁recommendation	-8674
▁Lamentablemente	-8675
▁albanokosovares	-8676
▁congratulations	-8677
▁environmentally	-8678
▁falsificaciones	-8679
▁lamentablemente	-8680
▁suficientemente	-8681
(2	-8682
."	-8683
.1	-8684
12	-8685
35	-8686
7.	-8687
82	-8688
AV	-8689
BT	-8690
DP	-8691
EL	-8692
Ha	-8693
IN	-8694
Lo	-8695
MI	-8696
PI	-8697
bs	-8698
dd	-8699
fí	-8700
gy	-8701
sh	-8702
él	-8703
ém	-8704
íg	-8705
20.	-8706
ATE	-8707
AVE	-8708
CHO	-8709
Con	-8710
Cul	-8711
GEN	-8712
INA	-8713
IPE	-8714
She	-8715
ail	-8716
alo	-8717
arr	-8718
art	-8719
ata	-8720
ben	-8721
bor	-8722
boy	-8723
dep	-8724
het	-8725
hne	-8726
igü	-8727
ijs	-8728
inc	-8729
isa	-8730
ize	-8731
iód	-8732
joy	-8733
kel	-8734
kis	-8735
lak	-8736
lam	-8737
lel	-8738
let	-8739
lle	-8740
mag	-8741
mul	-8742
new	-8743
ode	-8744
olo	-8745
ona	-8746
ont	-8747
ops	-8748
orf	-8749
osa	-8750
pla	-8751
pul	-8752
rat	-8753
rio	-8754
sch	-8755
slo	-8756
tom	-8757
tón	-8758
uir	-8759
ulf	-8760
ulz	-8761
uno	-8762
urd	-8763
utr	-8764
uve	-8765
vey	-8766
yac	-8767
ête	-8768
ída	-8769
örg	-8770
▁28	-8771
▁36	-8772
▁39	-8773
▁46	-8774
▁53	-8775
▁54	-8776
▁6,	-8777
▁71	-8778
▁79	-8779
▁9.	-8780
▁CF	-8781
▁Cz	-8782
▁FE	-8783
▁Oc	-8784
▁Pu	-8785
▁Rh	-8786
▁UK	-8787
▁US	-8788
▁Ve	-8789
▁ge	-8790
▁jó	-8791
▁zu	-8792
BATE	-8793
Esto	-8794
Quer	-8795
acro	-8796
ajos	-8797
asti	-8798
atal	-8799
aten	-8800
aton	-8801
atía	-8802
bean	-8803
berg	-8804
boya	-8805
cean	-8806
cero	-8807
ceso	-8808
chas	-8809
citi	-8810
ckhe	-8811
clar	-8812
cojo	-8813
eded	-8814
elos	-8815
emin	-8816
ense	-8817
erne	-8818
ervo	-8819
etro	-8820
ffic	-8821
fold	-8822
hand	-8823
heug	-8824
icht	-8825
icro	-8826
idem	-8827
igos	-8828
ileg	-8829
inen	-8830
inet	-8831
ints	-8832
ipul	-8833
irlo	-8834
isms	-8835
itad	-8836
itan	-8837
itud	-8838
ivas	-8839
ives	-8840
ivoc	-8841
jada	-8842
jado	-8843
jeta	-8844
leet	-8845
llas	-8846
lumb	-8847
olic	-8848
oman	-8849
onos	-8850
open	-8851
orry	-8852
oung	-8853
ourl	-8854
pair	-8855
pira	-8856
plic	-8857
real	-8858
reck	-8859
sary	-8860
selo	-8861
sica	-8862
tará	-8863
tera	-8864
thom	-8865
tick	-8866
uded	-8867
udgh	-8868
udir	-8869
uelo	-8870
urma	-8871
uses	-8872
usic	-8873
usta	-8874
utch	-8875
vent	-8876
vide	-8877
wide	-8878
wood	-8879
ynne	-8880
ésir	-8881
öner	-8882
▁100	-8883
▁11,	-8884
▁12,	-8885
▁176	-8886
▁27,	-8887
▁28,	-8888
▁280	-8889
▁29,	-8890
▁30%	-8891
▁32,	-8892
▁43,	-8893
▁850	-8894
▁Abo	-8895
▁Als	-8896
▁Any	-8897
▁Apr	-8898
▁Bél	-8899
▁CEN	-8900
▁Emp	-8901
▁Fal	-8902
▁Fra	-8903
▁Fue	-8904
▁GDP	-8905
▁Hän	-8906
▁Lan	-8907
▁Mal	-8908
▁McN	-8909
▁Men	-8910
▁Mor	-8911
▁Ped	-8912
▁Rad	-8913
▁TBT	-8914
▁Too	-8915
▁Vel	-8916
▁War	-8917
▁Zim	-8918
▁acu	-8919
▁ann	-8920
▁anx	-8921
▁atr	-8922
▁awa	-8923
▁bos	-8924
▁cad	-8925
▁cuy	-8926
▁dom	-8927
▁enh	-8928
▁fic	-8929
▁foo	-8930
▁fís	-8931
▁gap	-8932
▁gol	-8933
▁hid	-8934
▁hoc	-8935
▁iba	-8936
▁lif	-8937
▁mér	-8938
▁müs	-8939
▁nav	-8940
▁org	-8941
▁oír	-8942
▁pid	-8943
▁pin	-8944
▁raw	-8945
▁rot	-8946
▁sav	-8947
▁smo	-8948
▁som	-8949
▁tig	-8950
▁unf	-8951
▁ves	-8952
▁wit	-8953
5-007	-8954
Sheik	-8955
Tiene	-8956
World	-8957
adequ	-8958
alist	-8959
ambia	-8960
antas	-8961
antic	-8962
arder	-8963
arlos	-8964
astro	-8965
aucra	-8966
bodia	-8967
cemos	-8968
depth	-8969
ellos	-8970
encas	-8971
eneva	-8972
engen	-8973
erica	-8974
eries	-8975
ering	-8976
going	-8977
icher	-8978
icion	-8979
ierra	-8980
ierte	-8981
intra	-8982
istán	-8983
itage	-8984
ivers	-8985
kopou	-8986
lable	-8987
lebro	-8988
luter	-8989
menes	-8990
menia	-8991
onday	-8992
osset	-8993
press	-8994
ragio	-8995
tesis	-8996
tiles	-8997
turas	-8998
twool	-8999
uable	-9000
udado	-9001
uerda	-9002
ustom	-9003
wreck	-9004
zamos	-9005
érica	-9006
ómica	-9007
▁(199	-9008
▁1984	-9009
▁1994	-9010
▁2010	-9011
▁9.00	-9012
▁90/2	-9013
▁Algo	-9014
▁Also	-9015
▁Ambi	-9016
▁Ante	-9017
▁Asia	-9018
▁Blak	-9019
▁Bowe	-9020
▁Brov	-9021
▁Cath	-9022
▁Cual	-9023
▁DIPE	-9024
▁Dice	-9025
▁Dich	-9026
▁Disp	-9027
▁ECHO	-9028
▁Five	-9029
▁Good	-9030
▁Gran	-9031
▁Inst	-9032
▁June	-9033
▁Jörg	-9034
▁Laan	-9035
▁Lond	-9036
▁MEDA	-9037
▁Next	-9038
▁OMPI	-9039
▁Olle	-9040
▁Oslo	-9041
▁Over	-9042
▁PYME	-9043
▁Plan	-9044
▁Poos	-9045
▁Post	-9046
▁Pros	-9047
▁RINA	-9048
▁SAVE	-9049
▁Soci	-9050
▁Sres	-9051
▁Tend	-9052
▁Vill	-9053
▁WIPO	-9054
▁West	-9055
▁Wise	-9056
▁acum	-9057
▁aims	-9058
▁alem	-9059
▁aliv	-9060
▁alta	-9061
▁amis	-9062
▁anci	-9063
▁aper	-9064
▁apre	-9065
▁arms	-9066
▁baja	-9067
▁bure	-9068
▁card	-9069
▁coal	-9070
▁cope	-9071
▁cort	-9072
▁créd	-9073
▁culp	-9074
▁desv	-9075
▁diag	-9076
▁diga	-9077
▁drag	-9078
▁dram	-9079
▁drás	-9080
▁ende	-9081
▁ense	-9082
▁epis	-9083
▁esca	-9084
▁escr	-9085
▁exci	-9086
▁eyes	-9087
▁fast	-9088
▁feet	-9089
▁hago	-9090
▁haré	-9091
▁idón	-9092
▁iner	-9093
▁inex	-9094
▁iron	-9095
▁juzg	-9096
▁leer	-9097
▁lici	-9098
▁mail	-9099
▁mala	-9100
▁mayo	-9101
▁mech	-9102
▁nine	-9103
▁pact	-9104
▁pant	-9105
▁pond	-9106
▁pose	-9107
▁rend	-9108
▁room	-9109
▁root	-9110
▁sald	-9111
▁scar	-9112
▁sepa	-9113
▁sida	-9114
▁side	-9115
▁stri	-9116
▁surr	-9117
▁susp	-9118
▁temb	-9119
▁temo	-9120
▁thir	-9121
▁tort	-9122
▁trág	-9123
▁vast	-9124
▁vaya	-9125
▁vend	-9126
▁vice	-9127
▁vive	-9128
▁vivo	-9129
▁wake	-9130
▁wars	-9131
▁whom	-9132
▁área	-9133
1/99):	-9134
3/99):	-9135
4/00):	-9136
5-0009	-9137
5-0034	-9138
6/99):	-9139
7/99):	-9140
9/00):	-9141
9/99):	-9142
Podría	-9143
biendo	-9144
cidios	-9145
ckheer	-9146
cracia	-9147
cribir	-9148
depend	-9149
ecerán	-9150
echoso	-9151
edores	-9152
ficina	-9153
grafía	-9154
ground	-9155
heugen	-9156
hority	-9157
icosia	-9158
ifying	-9159
imitra	-9160
iously	-9161
isions	-9162
itting	-9163
landés	-9164
lianza	-9165
presid	-9166
ractic	-9167
tivity	-9168
utious	-9169
ábamos	-9170
áticos	-9171
ístico	-9172
ócrata	-9173
▁15.00	-9174
▁1999,	-9175
▁21.00	-9176
▁Acojo	-9177
▁Actas	-9178
▁Ahern	-9179
▁Ambas	-9180
▁Atlán	-9181
▁Barak	-9182
▁Belgr	-9183
▁Bourl	-9184
▁Braer	-9185
▁Burma	-9186
▁Categ	-9187
▁Corre	-9188
▁Could	-9189
▁Czech	-9190
▁Dutch	-9191
▁Désir	-9192
▁Evans	-9193
▁Exper	-9194
▁Franc	-9195
▁Hacen	-9196
▁Hudgh	-9197
▁Huhne	-9198
▁Irish	-9199
▁Lange	-9200
▁Lynne	-9201
▁Ojalá	-9202
▁Orden	-9203
▁Peijs	-9204
▁Plumb	-9205
▁Prime	-9206
▁Quizá	-9207
▁Recom	-9208
▁Schle	-9209
▁Sharm	-9210
▁Shell	-9211
▁South	-9212
▁Their	-9213
▁Thors	-9214
▁Trans	-9215
▁Turno	-9216
▁URGEN	-9217
▁Under	-9218
▁Urban	-9219
▁accus	-9220
▁advan	-9221
▁alert	-9222
▁alter	-9223
▁apare	-9224
▁armed	-9225
▁arres	-9226
▁asset	-9227
▁assum	-9228
▁atañe	-9229
▁atrac	-9230
▁barco	-9231
▁bases	-9232
▁basin	-9233
▁borne	-9234
▁cance	-9235
▁caída	-9236
▁clase	-9237
▁colec	-9238
▁corta	-9239
▁darle	-9240
▁decía	-9241
▁deeds	-9242
▁descu	-9243
▁desgu	-9244
▁disad	-9245
▁diver	-9246
▁domin	-9247
▁doors	-9248
▁enjoy	-9249
▁estup	-9250
▁evolu	-9251
▁faith	-9252
▁firms	-9253
▁forum	-9254
▁fresh	-9255
▁gesto	-9256
▁hopes	-9257
▁house	-9258
▁imper	-9259
▁incen	-9260
▁indis	-9261
▁intim	-9262
▁inund	-9263
▁journ	-9264
▁junio	-9265
▁juven	-9266
▁lagun	-9267
▁larga	-9268
▁leído	-9269
▁llama	-9270
▁lunes	-9271
▁macro	-9272
▁manej	-9273
▁marks	-9274
▁meant	-9275
▁micro	-9276
▁mitad	-9277
▁moder	-9278
▁monet	-9279
▁motor	-9280
▁music	-9281
▁nueve	-9282
▁obser	-9283
▁opera	-9284
▁opone	-9285
▁perce	-9286
▁plane	-9287
▁ponga	-9288
▁prevé	-9289
▁pursu	-9290
▁quote	-9291
▁react	-9292
▁refor	-9293
▁sexos	-9294
▁shape	-9295
▁shows	-9296
▁simul	-9297
▁sixth	-9298
▁slick	-9299
▁sober	-9300
▁stick	-9301
▁stret	-9302
▁subse	-9303
▁sueco	-9304
▁sumar	-9305
▁taxes	-9306
▁texts	-9307
▁tools	-9308
▁towns	-9309
▁tried	-9310
▁turco	-9311
▁union	-9312
▁usual	-9313
▁utter	-9314
▁vague	-9315
▁velar	-9316
▁vidas	-9317
▁vivir	-9318
▁votos	-9319
▁wider	-9320
▁works	-9321
▁árbol	-9322
2/2000)	-9323
3/2000)	-9324
7/1999)	-9325
8/1999)	-9326
anismos	-9327
antling	-9328
arrollo	-9329
counter	-9330
ecurity	-9331
ingdorf	-9332
isoners	-9333
lectual	-9334
parable	-9335
pulates	-9336
respons	-9337
ressing	-9338
ufragio	-9339
▁Before	-9340
▁Caribe	-9341
▁DEBATE	-9342
▁Dentro	-9343
▁During	-9344
▁Examin	-9345
▁Franco	-9346
▁Geneva	-9347
▁Graefe	-9348
▁Grupos	-9349
▁Gröner	-9350
▁Habría	-9351
▁Hänsch	-9352
▁Leinen	-9353
▁Maastr	-9354
▁Martin	-9355
▁Monday	-9356
▁Muchos	-9357
▁Nether	-9358
▁Nobody	-9359
▁Office	-9360
▁Peters	-9361
▁Postal	-9362
▁Primer	-9363
▁Public	-9364
▁Santer	-9365
▁Schulz	-9366
▁Should	-9367
▁Sintra	-9368
▁Termin	-9369
▁Varios	-9370
▁Velzen	-9371
▁Within	-9372
▁Zambia	-9373
▁abarca	-9374
▁acaban	-9375
▁acabar	-9376
▁adhere	-9377
▁advice	-9378
▁aislar	-9379
▁ambigü	-9380
▁assemb	-9381
▁attemp	-9382
▁barbar	-9383
▁básico	-9384
▁campos	-9385
▁cartas	-9386
▁circul	-9387
▁clause	-9388
▁closer	-9389
▁consta	-9390
▁counts	-9391
▁courts	-9392
▁cuanti	-9393
▁cuesta	-9394
▁decade	-9395
▁defens	-9396
▁desemb	-9397
▁deseos	-9398
▁dictad	-9399
▁discul	-9400
▁diseño	-9401
▁dismin	-9402
▁dispar	-9403
▁double	-9404
▁doubts	-9405
▁easily	-9406
▁ejecut	-9407
▁elasti	-9408
▁employ	-9409
▁encarg	-9410
▁engage	-9411
▁entail	-9412
▁epidem	-9413
▁especi	-9414
▁estaré	-9415
▁examen	-9416
▁exigir	-9417
▁female	-9418
▁forced	-9419
▁forest	-9420
▁genera	-9421
▁gramos	-9422
▁griego	-9423
▁hablan	-9424
▁habrán	-9425
▁higher	-9426
▁honour	-9427
▁humano	-9428
▁inacep	-9429
▁incons	-9430
▁insist	-9431
▁instal	-9432
▁judged	-9433
▁juntos	-9434
▁liable	-9435
▁libres	-9436
▁limits	-9437
▁limpia	-9438
▁llevan	-9439
▁mainly	-9440
▁member	-9441
▁merits	-9442
▁method	-9443
▁modest	-9444
▁multil	-9445
▁multin	-9446
▁música	-9447
▁müssen	-9448
▁newspa	-9449
▁object	-9450
▁ocurra	-9451
▁outset	-9452
▁parame	-9453
▁pasada	-9454
▁periód	-9455
▁piedra	-9456
▁pillar	-9457
▁piloto	-9458
▁planet	-9459
▁previa	-9460
▁prices	-9461
▁procur	-9462
▁propag	-9463
▁proteg	-9464
▁puerta	-9465
▁quiera	-9466
▁racist	-9467
▁raises	-9468
▁reales	-9469
▁redact	-9470
▁redund	-9471
▁regime	-9472
▁scheme	-9473
▁serios	-9474
▁serves	-9475
▁shared	-9476
▁sienta	-9477
▁sobrev	-9478
▁stabil	-9479
▁statis	-9480
▁subyac	-9481
▁sólida	-9482
▁tantos	-9483
▁temper	-9484
▁tengan	-9485
▁textos	-9486
▁tierra	-9487
▁timely	-9488
▁tragic	-9489
▁tratan	-9490
▁travel	-9491
▁troops	-9492
▁unique	-9493
▁unreal	-9494
▁uphold	-9495
▁vaccin	-9496
▁vengan	-9497
▁vistas	-9498
▁vulner	-9499
▁válido	-9500
▁worked	-9501
▁worthy	-9502
atorship	-9503
bióticos	-9504
cripción	-9505
endering	-9506
kopoulos	-9507
laciones	-9508
ossetête	-9509
oubtedly	-9510
polluter	-9511
▁Albania	-9512
▁America	-9513
▁América	-9514
▁Andalus	-9515
▁Armenia	-9516
▁Attwool	-9517
▁Brovina	-9518
▁Bélgica	-9519
▁Camboya	-9520
▁Celebro	-9521
▁DIPECHO	-9522
▁Dimitra	-9523
▁Galicia	-9524
▁Haarder	-9525
▁Incluso	-9526
▁Indians	-9527
▁McNally	-9528
▁Navidad	-9529
▁Nicosia	-9530
▁Nothing	-9531
▁Pedimos	-9532
▁Segundo	-9533
▁Todavía	-9534
▁Tomamos	-9535
▁Turkish	-9536
▁Vitoria	-9537
▁abierta	-9538
▁abogado	-9539
▁afirmar	-9540
▁answers	-9541
▁aportar	-9542
▁apoyado	-9543
▁applaud	-9544
▁autobio	-9545
▁autores	-9546
▁avoided	-9547
▁bienven	-9548
▁binding	-9549
▁bosques	-9550
▁campaña	-9551
▁canales	-9552
▁cartero	-9553
▁circuns	-9554
▁clearer	-9555
▁compend	-9556
▁concede	-9557
▁confine	-9558
▁consejo	-9559
▁consumo	-9560
▁contact	-9561
▁creates	-9562
▁cuantos	-9563
▁cuencas	-9564
▁cuidado	-9565
▁declara	-9566
▁deficit	-9567
▁deliver	-9568
▁destino	-9569
▁dossier	-9570
▁dynamic	-9571
▁empleos	-9572
▁enlarge	-9573
▁entered	-9574
▁enterpr	-9575
▁errónea	-9576
▁escrito	-9577
▁estados	-9578
▁estando	-9579
▁estaría	-9580
▁extraña	-9581
▁farming	-9582
▁feeding	-9583
▁fishery	-9584
▁formula	-9585
▁friends	-9586
▁fuertes	-9587
▁generar	-9588
▁greatly	-9589
▁holding	-9590
▁imagine	-9591
▁impedir	-9592
▁inadequ	-9593
▁incompa	-9594
▁incumpl	-9595
▁instruc	-9596
▁intento	-9597
▁intoler	-9598
▁jóvenes	-9599
▁lacking	-9600
▁lawyers	-9601
▁lección	-9602
▁lessons	-9603
▁llamado	-9604
▁mandato	-9605
▁mejoras	-9606
▁minoría	-9607
▁mistake	-9608
▁muertos	-9609
▁muestra	-9610
▁multina	-9611
▁mínimas	-9612
▁niveles	-9613
▁noticia	-9614
▁numbers	-9615
▁ocurrir	-9616
▁parecen	-9617
▁picture	-9618
▁poderes	-9619
▁precios	-9620
▁promise	-9621
▁redistr	-9622
▁repercu	-9623
▁respald	-9624
▁revisit	-9625
▁reviste	-9626
▁rurales	-9627
▁science	-9628
▁seeking	-9629
▁sencill	-9630
▁setting	-9631
▁signals	-9632
▁silence	-9633
▁stopped	-9634
▁suceder	-9635
▁sufrido	-9636
▁surgido	-9637
▁tarjeta	-9638
▁temores	-9639
▁tendría	-9640
▁tighten	-9641
▁tomamos	-9642
▁traffic	-9643
▁turning	-9644
▁twofold	-9645
▁técnico	-9646
▁término	-9647
▁unclear	-9648
▁uniform	-9649
▁unneces	-9650
▁unusual	-9651
▁unánime	-9652
▁viernes	-9653
▁weapons	-9654
▁welfare	-9655
▁órganos	-9656
President	-9657
coreboard	-9658
establish	-9659
icaciones	-9660
izaciones	-9661
portation	-9662
ustration	-9663
▁Albanian	-9664
▁Atlantic	-9665
▁Cambodia	-9666
▁Catholic	-9667
▁Everyone	-9668
▁Goodyear	-9669
▁Hudghton	-9670
▁Independ	-9671
▁Naciones	-9672
▁Nuestras	-9673
▁Nuestros	-9674
▁Recuerdo	-9675
▁Respecto	-9676
▁Schengen	-9677
▁Villiers	-9678
▁Whatever	-9679
▁absolute	-9680
▁accepted	-9681
▁accounts	-9682
▁aceptado	-9683
▁acertada	-9684
▁actively	-9685
▁afectado	-9686
▁alcancen	-9687
▁antiguos	-9688
▁anywhere	-9689
▁aprender	-9690
▁aprobado	-9691
▁attitude	-9692
▁capítulo	-9693
▁carencia	-9694
▁cautious	-9695
▁clasific	-9696
▁coherent	-9697
▁comienzo	-9698
▁comparte	-9699
▁completa	-9700
▁comprend	-9701
▁concreta	-9702
▁continúa	-9703
▁correcta	-9704
▁creation	-9705
▁deadline	-9706
▁debating	-9707
▁decirnos	-9708
▁definido	-9709
▁deserves	-9710
▁dinámica	-9711
▁discutir	-9712
▁disponen	-9713
▁disposed	-9714
▁diversos	-9715
▁efectiva	-9716
▁elección	-9717
▁elegidos	-9718
▁emphasis	-9719
▁enfrenta	-9720
▁entering	-9721
▁esconder	-9722
▁esforzar	-9723
▁estricta	-9724
▁estudiar	-9725
▁excluded	-9726
▁extended	-9727
▁external	-9728
▁femenina	-9729
▁fighting	-9730
▁fragment	-9731
▁generate	-9732
▁granting	-9733
▁gravedad	-9734
▁heritage	-9735
▁incluida	-9736
▁informar	-9737
▁ingresos	-9738
▁initiate	-9739
▁insatisf	-9740
▁insistir	-9741
▁integrar	-9742
▁intended	-9743
▁involves	-9744
▁lamentar	-9745
▁lenguaje	-9746
▁limpieza	-9747
▁logramos	-9748
▁menciona	-9749
▁minority	-9750
▁northern	-9751
▁obtenido	-9752
▁occasion	-9753
▁ocupamos	-9754
▁omission	-9755
▁openness	-9756
▁opinions	-9757
▁pequeñas	-9758
▁perjudic	-9759
▁podíamos	-9760
▁predeces	-9761
▁premises	-9762
▁presence	-9763
▁preserve	-9764
▁privileg	-9765
▁promises	-9766
▁pronunci	-9767
▁property	-9768
▁proposes	-9769
▁prosecut	-9770
▁protocol	-9771
▁quinquen	-9772
▁racional	-9773
▁ratified	-9774
▁reaccion	-9775
▁reacción	-9776
▁realizan	-9777
▁reciente	-9778
▁reducing	-9779
▁reflects	-9780
▁reformar	-9781
▁register	-9782
▁requests	-9783
▁residuos	-9784
▁respaldo	-9785
▁respects	-9786
▁resultar	-9787
▁revision	-9788
▁secretar	-9789
▁seguimos	-9790
▁sentimos	-9791
▁seriedad	-9792
▁señorías	-9793
▁shortage	-9794
▁silencio	-9795
▁sittings	-9796
▁slightly	-9797
▁supposed	-9798
▁teniendo	-9799
▁terminar	-9800
▁tragedia	-9801
▁tribunal	-9802
▁técnicas	-9803
▁undermin	-9804
▁utilidad	-9805
▁valuable	-9806
▁vehículo	-9807
▁vertical	-9808
▁weakened	-9809
▁yourself	-9810
ifications	-9811
racticable	-9812
▁Americans	-9813
▁Authority	-9814
▁Caribbean	-9815
▁Decisions	-9816
▁Fisheries	-9817
▁Jonckheer	-9818
▁Propuesta	-9819
▁Sometimes	-9820
▁Verheugen	-9821
▁abstained	-9822
▁acknowled	-9823
▁adecuados	-9824
▁adquirido	-9825
▁alcanzado	-9826
▁ambiguity	-9827
▁applicant	-9828
▁aprobemos	-9829
▁austríaca	-9830
▁avanzando	-9831
▁bureaucra	-9832
▁candidate	-9833
▁celebrado	-9834
▁civilians	-9835
▁civilised	-9836
▁completed	-9837
▁comunicar	-9838
▁concedido	-9839
▁concierne	-9840
▁concluido	-9841
▁condemned	-9842
▁conflicto	-9843
▁contained	-9844
▁convencer	-9845
▁copyright	-9846
▁correctly	-9847
▁debilitar	-9848
▁defendido	-9849
▁defending	-9850
▁demasiada	-9851
▁democrats	-9852
▁demostrar	-9853
▁desastres	-9854
▁desempeña	-9855
▁detriment	-9856
▁disciplin	-9857
▁dispuesta	-9858
▁distintas	-9859
▁diversity	-9860
▁específic	-9861
▁establece	-9862
▁excepción	-9863
▁exigencia	-9864
▁existence	-9865
▁existente	-9866
▁extensive	-9867
▁favorable	-9868
▁fishermen	-9869
▁fracasado	-9870
▁hemiciclo	-9871
▁identific	-9872
▁immediate	-9873
▁impresión	-9874
▁inclusion	-9875
▁informado	-9876
▁jurídicos	-9877
▁laborales	-9878
▁listening	-9879
▁magnífico	-9880
▁migration	-9881
▁monitored	-9882
▁naturales	-9883
▁operation	-9884
▁oposición	-9885
▁organisms	-9886
▁peligroso	-9887
▁pertenece	-9888
▁pesqueros	-9889
▁planteada	-9890
▁posterior	-9891
▁preparing	-9892
▁prisoners	-9893
▁producing	-9894
▁propósito	-9895
▁prudencia	-9896
▁qualified	-9897
▁radicales	-9898
▁reanudado	-9899
▁recuperar	-9900
▁reglament	-9901
▁regulated	-9902
▁safeguard	-9903
▁similares	-9904
▁socialdem	-9905
▁stringent	-9906
▁suffering	-9907
▁taxpayers	-9908
▁tendremos	-9909
▁totalidad	-9910
▁tradition	-9911
▁xenófobos	-9912
▁Baringdorf	-9913
▁Bienvenida	-9914
▁Bourlanges	-9915
▁Grossetête	-9916
▁Initiative	-9917
▁Maastricht	-9918
▁Petersberg	-9919
▁Presupuest	-9920
▁Prosecutor	-9921
▁Schleicher	-9922
▁aclaración	-9923
▁addressing	-9924
▁aportación	-9925
▁asistentes	-9926
▁assistants	-9927
▁burocracia	-9928
▁compatible	-9929
▁components	-9930
▁constitute	-9931
▁corruption	-9932
▁criticisms	-9933
▁cualquiera	-9934
▁culturales	-9935
▁decisively	-9936
▁delegación	-9937
▁delegation	-9938
▁demócratas	-9939
▁desacuerdo	-9940
▁difficulty	-9941
▁disadvanta	-9942
▁discutimos	-9943
▁disponemos	-9944
▁diversidad	-9945
▁económicas	-9946
▁eficiencia	-9947
▁eliminated	-9948
▁emphasises	-9949
▁especiales	-9950
▁específico	-9951
▁expediente	-9952
▁expresadas	-9953
▁facilitate	-9954
▁foundation	-9955
▁historical	-9956
▁inevitably	-9957
▁integrated	-9958
▁intensific	-9959
▁lamentable	-9960
▁libertades	-9961
▁mecanismos	-9962
▁minorities	-9963
▁movimiento	-9964
▁municipios	-9965
▁obviamente	-9966
▁optimistic	-9967
▁pabellones	-9968
▁paragraphs	-9969
▁permítanme	-9970
▁personally	-9971
▁philosophy	-9972
▁positively	-9973
▁presentará	-9974
▁prosperity	-9975
▁provechoso	-9976
▁realizarse	-9977
▁represents	-9978
▁requisitos	-9979
▁respondido	-9980
▁satisfecho	-9981
▁sociedades	-9982
▁stipulates	-9983
▁strategies	-9984
▁sustancial	-9985
▁tecnología	-9986
▁terrorismo	-9987
▁threatened	-9988
▁traducción	-9989
▁transición	-9990
▁unilateral	-9991
▁valoración	-9992
▁vigilancia	-9993
▁vulnerable	-9994
▁withdrawal	-9995
5-0007/2000)	-9996
5-0025/2000)	-9997
continuación	-9998
continuation	-9999
▁Competition	-10000
▁Francamente	-10001
▁Fundamental	-10002
▁Netherlands	-10003
▁activamente	-10004
▁appointment	-10005
▁capacidades	-10006
▁científicos	-10007
▁comentarios	-10008
▁communities	-10009
▁competences	-10010
▁conseguimos	-10011
▁considering	-10012
▁convenience	-10013
▁cualificada	-10014
▁defendiendo	-10015
▁demonstrate	-10016
▁dismantling	-10017
▁distressing	-10018
▁electrónico	-10019
▁enforcement	-10020
▁estrategias	-10021
▁estructural	-10022
▁financieras	-10023
▁helicopters	-10024
▁herramienta	-10025
▁inadmisible	-10026
▁incrementar	-10027
▁individuals	-10028
▁inspectores	-10029
▁integration	-10030
▁movimientos	-10031
▁necessarily	-10032
▁negociación	-10033
▁observatory	-10034
▁operational	-10035
▁outstanding	-10036
▁politically	-10037
▁politicians	-10038
▁preliminary	-10039
▁preparation	-10040
▁procedentes	-10041
▁profundidad	-10042
▁provisional	-10043
▁relacionado	-10044
▁represented	-10045
▁reservation	-10046
▁satisfechos	-10047
▁speculation	-10048
▁surrounding	-10049
▁transportes	-10050
▁unnecessary	-10051
▁unrealistic	-10052
5-0003/2000).	-10053
5-0009/2000).	-10054
▁agricultores	-10055
▁agricultural	-10056
▁antibióticos	-10057
▁appreciation	-10058
▁compensation	-10059
▁consideramos	-10060
▁considerando	-10061
▁constructive	-10062
▁deficiencies	-10063
▁delincuencia	-10064
▁desarrollado	-10065
▁dictatorship	-10066
▁establishing	-10067
▁generaciones	-10068
▁inaceptables	-10069
▁increasingly	-10070
▁introduction	-10071
▁neighbouring	-10072
▁nevertheless	-10073
▁parcialmente	-10074
▁particulares	-10075
▁prestaciones	-10076
▁recopilación	-10077
▁regulaciones	-10078
▁restrictions	-10079
▁sinceramente	-10080
▁strengthened	-10081
▁surrendering	-10082
▁transactions	-10083
▁transcurrido	-10084
▁urgentemente	-10085
▁contradictory	-10086
▁contributions	-10087
▁esencialmente	-10088
▁falsificación	-10089
▁feedingstuffs	-10090
▁harmonisation	-10091
▁impracticable	-10092
▁indispensable	-10093
▁mainstreaming	-10094
▁multinational	-10095
▁participation	-10096
▁personalmente	-10097
▁acontecimiento	-10098
▁classification	-10099
▁complementaria	-10100
▁considerations	-10101
▁contribuyentes	-10102
▁demonstrations	-10103
▁exclusivamente	-10104
▁parlamentarios	-10105
▁reconciliación	-10106
▁representation	-10107
▁transportation	-10108
▁wholeheartedly	-10109
▁Dimitrakopoulos	-10110
▁contradicciones	-10111
▁correspondencia	-10112
▁definitivamente	-10113
▁internacionales	-10114
(1	-10115
-2	-10116
.,	-10117
2%	-10118
3,	-10119
6.	-10120
AC	-10121
De	-10122
GO	-10123
NL	-10124
OM	-10125
PP	-10126
RS	-10127
UE	-10128
UU	-10129
YR	-10130
af	-10131
ao	-10132
ju	-10133
ki	-10134
ru	-10135
sp	-10136
ág	-10137
íf	-10138
üb	-10139
▁X	-10140
▁­	-10141
▁ó	-10142
.25	-10143
.30	-10144
Der	-10145
Las	-10146
Más	-10147
RYM	-10148
Ten	-10149
adá	-10150
asò	-10151
bby	-10152
cad	-10153
cib	-10154
cic	-10155
ció	-10156
due	-10157
ean	-10158
ede	-10159
emn	-10160
ems	-10161
enn	-10162
ery	-10163
far	-10164
fas	-10165
fos	-10166
gil	-10167
hed	-10168
ijo	-10169
kay	-10170
ket	-10171
law	-10172
ley	-10173
lio	-10174
lut	-10175
lys	-10176
mod	-10177
món	-10178
nós	-10179
ono	-10180
ori	-10181
pot	-10182
rew	-10183
rey	-10184
ror	-10185
rro	-10186
see	-10187
tia	-10188
tió	-10189
tró	-10190
uis	-10191
ulg	-10192
umn	-10193
ung	-10194
usb	-10195
wan	-10196
xes	-10197
yle	-10198
yon	-10199
hab	-10200
lés	-10201
úan	-10202
úen	-10203
▁1.	-10204
▁2%	-10205
▁5%	-10206
▁5.	-10207
▁7,	-10208
▁70	-10209
▁8,	-10210
▁By	-10211
▁EL	-10212
▁Em	-10213
▁Iz	-10214
▁Op	-10215
▁SE	-10216
▁Ta	-10217
▁aj	-10218
▁aé	-10219
▁je	-10220
▁sk	-10221
▁sl	-10222
▁ub	-10223
▁wa	-10224
.500	-10225
YROM	-10226
ader	-10227
amed	-10228
anía	-10229
arch	-10230
ares	-10231
ason	-10232
bias	-10233
blow	-10234
cent	-10235
ener	-10236
enio	-10237
este	-10238
evid	-10239
ffec	-10240
fico	-10241
flex	-10242
fíos	-10243
gers	-10244
greg	-10245
haus	-10246
here	-10247
hibi	-10248
iano	-10249
illa	-10250
ills	-10251
ilty	-10252
ince	-10253
inte	-10254
ione	-10255
iosa	-10256
ioto	-10257
irle	-10258
ites	-10259
liho	-10260
lyss	-10261
ming	-10262
mula	-10263
obre	-10264
ogén	-10265
olly	-10266
orar	-10267
oras	-10268
oric	-10269
osen	-10270
ower	-10271
pany	-10272
pelo	-10273
play	-10274
prec	-10275
rado	-10276
ront	-10277
teza	-10278
thly	-10279
toño	-10280
ueva	-10281
uled	-10282
uran	-10283
ured	-10284
uste	-10285
utas	-10286
uter	-10287
vars	-10288
will	-10289
wind	-10290
yoto	-10291
ícol	-10292
ñado	-10293
übig	-10294
▁10,	-10295
▁167	-10296
▁800	-10297
▁90%	-10298
▁Aff	-10299
-,	-10300
2-	-10301
GM	-10302
fto	-10303
cons	-10304
ellf	-10305
esea	-10306
held	-10307
iese	-10308
iour	-10309
ivir	-10310
izan	-10311
izás	-10312
lary	-10313
ller	-10314
ompa	-10315
rets	-10316
till	-10317
ucas	-10318
ámos	-10319
▁Aid	-10320
▁App	-10321
▁Ara	-10322
▁Aún	-10323
▁Bir	-10324
▁CFP	-10325
▁EDF	-10326
▁EET	-10327
▁ETA	-10328
▁Equ	-10329
▁FED	-10330
▁Fas	-10331
▁Has	-10332
▁Hec	-10333
▁Lux	-10334
▁NGO	-10335
▁Naz	-10336
▁Num	-10337
▁OGM	-10338
▁Pas	-10339
▁Sen	-10340
▁Sim	-10341
▁Sup	-10342
▁Vol	-10343
▁Wel	-10344
▁Wor	-10345
▁ant	-10346
▁aun	-10347
▁beb	-10348
▁bef	-10349
▁cit	-10350
▁dil	-10351
▁eye	-10352
▁frá	-10353
▁fór	-10354
▁geo	-10355
▁hes	-10356
▁hit	-10357
▁hum	-10358
▁hun	-10359
▁lay	-10360
▁lla	-10361
▁lle	-10362
▁mir	-10363
▁mur	-10364
▁méd	-10365
▁mío	-10366
▁opp	-10367
▁pan	-10368
▁pec	-10369
▁pet	-10370
▁pub	-10371
▁pul	-10372
▁rum	-10373
▁tor	-10374
▁tri	-10375
▁vag	-10376
▁vas	-10377
▁vit	-10378
▁vín	-10379
acing	-10380
aging	-10381
andra	-10382
antly	-10383
aping	-10384
arris	-10385
arían	-10386
asion	-10387
asòli	-10388
avier	-10389
based	-10390
benef	-10391
celer	-10392
claim	-10393
claje	-10394
class	-10395
clude	-10396
cribe	-10397
curso	-10398
dated	-10399
acy	-10400
cum	-10401
dió	-10402
rif	-10403
▁2.	-10404
aest	-10405
atas	-10406
give	-10407
onio	-10408
part	-10409
pula	-10410
sens	-10411
zens	-10412
émon	-10413
▁Aqu	-10414
▁Fif	-10415
▁Wed	-10416
▁afi	-10417
asure	-10418
dicho	-10419
eaper	-10420
ector	-10421
edent	-10422
eding	-10423
emost	-10424
empla	-10425
endid	-10426
ental	-10427
eping	-10428
erson	-10429
esión	-10430
ficit	-10431
fying	-10432
grace	-10433
iamos	-10434
icket	-10435
iezan	-10436
iftly	-10437
igent	-10438
ilege	-10439
iling	-10440
illed	-10441
istle	-10442
istos	-10443
iving	-10444
lamos	-10445
lling	-10446
locut	-10447
mante	-10448
monio	-10449
oding	-10450
onsej	-10451
orage	-10452
orthy	-10453
ossal	-10454
place	-10455
posal	-10456
prene	-10457
ptima	-10458
ption	-10459
quent	-10460
quera	-10461
quete	-10462
quien	-10463
raelí	-10464
ratic	-10465
recen	-10466
repan	-10467
rroga	-10468
scale	-10469
sions	-10470
state	-10471
tarse	-10472
teras	-10473
tingu	-10474
udido	-10475
ueblo	-10476
ueron	-10477
under	-10478
usias	-10479
utual	-10480
vable	-10481
vados	-10482
viene	-10483
viven	-10484
yamos	-10485
yecto	-10486
ymous	-10487
ácito	-10488
ánica	-10489
égica	-10490
ética	-10491
ígena	-10492
ísimo	-10493
▁1990	-10494
▁37(2	-10495
▁ARYM	-10496
▁Acab	-10497
▁Addi	-10498
▁Alex	-10499
AS	-10500
We	-10501
aut	-10502
rar	-10503
sas	-10504
zca	-10505
inar	-10506
ipto	-10507
mite	-10508
moun	-10509
ongo	-10510
tood	-10511
uebo	-10512
▁She	-10513
▁bil	-10514
▁kil	-10515
▁saw	-10516
hered	-10517
thern	-10518
ullos	-10519
upied	-10520
uplic	-10521
▁Allí	-10522
▁Ayer	-10523
▁Buen	-10524
▁Clar	-10525
▁Debo	-10526
▁Desp	-10527
▁Dios	-10528
▁Ella	-10529
▁Estu	-10530
▁Four	-10531
▁Hago	-10532
▁Herr	-10533
▁High	-10534
▁Hist	-10535
▁Karl	-10536
▁Llam	-10537
▁Será	-10538
▁Take	-10539
▁Toda	-10540
▁Tres	-10541
▁abor	-10542
▁abre	-10543
▁alim	-10544
▁alma	-10545
▁alza	-10546
▁apla	-10547
▁ardu	-10548
▁arma	-10549
▁artí	-10550
▁asom	-10551
▁atra	-10552
▁awar	-10553
▁bank	-10554
▁beef	-10555
▁bene	-10556
▁born	-10557
▁busc	-10558
▁caer	-10559
▁cien	-10560
▁cubr	-10561
▁cure	-10562
▁cuya	-10563
▁dará	-10564
▁dato	-10565
▁debt	-10566
▁deja	-10567
▁deje	-10568
▁deny	-10569
▁desh	-10570
▁drop	-10571
▁dual	-10572
▁elog	-10573
▁eman	-10574
▁enab	-10575
▁enum	-10576
▁esco	-10577
▁evit	-10578
▁exac	-10579
▁fulf	-10580
▁gear	-10581
▁glob	-10582
▁gone	-10583
▁grat	-10584
▁grip	-10585
▁harm	-10586
▁husb	-10587
▁indi	-10588
▁infl	-10589
▁insp	-10590
▁ital	-10591
▁laud	-10592
▁laws	-10593
▁mach	-10594
▁mera	-10595
▁mesa	-10596
▁meta	-10597
▁minu	-10598
▁mort	-10599
rog	-10600
uct	-10601
emej	-10602
enci	-10603
iece	-10604
inda	-10605
llev	-10606
óxim	-10607
▁jef	-10608
▁row	-10609
▁wes	-10610
centa	-10611
dened	-10612
encad	-10613
iguar	-10614
jarse	-10615
justi	-10616
pacio	-10617
patía	-10618
urian	-10619
urias	-10620
while	-10621
émico	-10622
▁asks	-10623
▁gala	-10624
▁hito	-10625
▁nave	-10626
▁neer	-10627
▁noci	-10628
▁ocho	-10629
▁pack	-10630
▁paro	-10631
▁path	-10632
▁patr	-10633
▁peat	-10634
▁peso	-10635
▁phas	-10636
▁phys	-10637
▁pity	-10638
▁pong	-10639
▁push	-10640
▁puts	-10641
▁quar	-10642
▁recl	-10643
▁rele	-10644
▁rely	-10645
▁repu	-10646
▁reve	-10647
▁rhet	-10648
▁rich	-10649
▁rose	-10650
▁sake	-10651
▁sale	-10652
▁save	-10653
▁scen	-10654
▁sold	-10655
▁spot	-10656
▁suma	-10657
▁sumo	-10658
▁tang	-10659
▁tape	-10660
▁team	-10661
▁thor	-10662
▁tomo	-10663
▁tree	-10664
▁unir	-10665
▁vacc	-10666
▁verá	-10667
▁vino	-10668
▁warn	-10669
▁wind	-10670
Cuándo	-10671
Europa	-10672
Harris	-10673
Piensa	-10674
Sheikh	-10675
agraph	-10676
alists	-10677
alling	-10678
ancesa	-10679
annual	-10680
anquil	-10681
ansion	-10682
antime	-10683
atarra	-10684
atural	-10685
aviour	-10686
border	-10687
bremos	-10688
cieron	-10689
cuenta	-10690
curate	-10691
ements	-10692
enguer	-10693
enidad	-10694
ennium	-10695
ensive	-10696
gracia	-10697
graphy	-10698
gráfic	-10699
▁5,	-10700
▁500	-10701
▁doc	-10702
▁rob	-10703
adays	-10704
derly	-10705
ícita	-10706
▁Roma	-10707
▁infr	-10708
bierta	-10709
ectada	-10710
iendas	-10711
ienten	-10712
iments	-10713
istent	-10714
ladera	-10715
lessly	-10716
nesday	-10717
ograph	-10718
ondría	-10719
oridad	-10720
oughly	-10721
ounded	-10722
portar	-10723
precio	-10724
propor	-10725
resión	-10726
riding	-10727
rovech	-10728
soever	-10729
tantes	-10730
taseme	-10731
tibles	-10732
tróleo	-10733
uccess	-10734
uitful	-10735
umbres	-10736
winded	-10737
ámoslo	-10738
émonos	-10739
írselo	-10740
▁1992,	-10741
▁2000?	-10742
▁Alyss	-10743
▁April	-10744
▁Bajos	-10745
▁Basta	-10746
▁Coher	-10747
▁Concl	-10748
▁David	-10749
▁Decía	-10750
▁Demas	-10751
▁Entre	-10752
▁Estim	-10753
▁FYROM	-10754
▁Falta	-10755
▁Given	-10756
▁Golan	-10757
▁Golán	-10758
▁Japan	-10759
▁Kioto	-10760
▁Kyoto	-10761
▁Legal	-10762
▁Legis	-10763
▁Liber	-10764
▁Lucas	-10765
▁Mucha	-10766
▁Mucho	-10767
▁Opino	-10768
▁Peter	-10769
▁Queda	-10770
▁Roman	-10771
▁Rural	-10772
▁Rusia	-10773
▁Rübig	-10774
▁Staes	-10775
▁Three	-10776
▁Until	-10777
▁abajo	-10778
▁aboga	-10779
▁absor	-10780
▁abuse	-10781
▁acabo	-10782
▁acced	-10783
▁admis	-10784
▁agrup	-10785
▁alber	-10786
▁alent	-10787
▁amigo	-10788
▁antic	-10789
▁arras	-10790
▁asign	-10791
▁aspir	-10792
▁aston	-10793
▁autob	-10794
▁ayude	-10795
▁aérea	-10796
▁badly	-10797
▁bears	-10798
▁break	-10799
▁buque	-10800
▁carre	-10801
▁casco	-10802
▁cerca	-10803
▁chain	-10804
▁chose	-10805
▁clima	-10806
▁comis	-10807
▁conoc	-10808
▁conqu	-10809
▁daily	-10810
▁dando	-10811
▁decre	-10812
▁desee	-10813
▁devol	-10814
▁diera	-10815
▁diría	-10816
▁duras	-10817
▁dying	-10818
▁early	-10819
▁embal	-10820
▁embra	-10821
▁encom	-10822
▁enfoc	-10823
▁enorm	-10824
▁excus	-10825
▁expir	-10826
▁faces	-10827
▁falla	-10828
▁fatal	-10829
▁fears	-10830
▁feels	-10831
▁feliz	-10832
▁finds	-10833
▁flags	-10834
▁forty	-10835
▁frase	-10836
▁fuels	-10837
▁gozar	-10838
▁gusta	-10839
▁habló	-10840
▁hence	-10841
▁horiz	-10842
▁inaug	-10843
▁incur	-10844
▁inher	-10845
▁inmun	-10846
▁inser	-10847
▁intel	-10848
▁invit	-10849
▁irreg	-10850
▁items	-10851
▁junto	-10852
▁lands	-10853
▁lanza	-10854
▁lefto	-10855
▁libro	-10856
▁llega	-10857
▁llegu	-10858
▁lobby	-10859
▁logro	-10860
▁magic	-10861
▁march	-10862
▁meets	-10863
▁merit	-10864
▁miedo	-10865
▁minds	-10866
▁modal	-10867
▁mostr	-10868
▁moved	-10869
▁movil	-10870
▁mucus	-10871
▁múlti	-10872
▁negar	-10873
▁negra	-10874
▁nepot	-10875
▁neutr	-10876
▁niego	-10877
▁older	-10878
▁otoño	-10879
▁peces	-10880
▁pilot	-10881
▁ponen	-10882
▁ports	-10883
▁prime	-10884
▁proud	-10885
▁refir	-10886
▁regla	-10887
▁remit	-10888
▁repli	-10889
▁revel	-10890
▁roads	-10891
▁salva	-10892
▁sched	-10893
▁seize	-10894
▁sensi	-10895
▁serlo	-10896
▁sever	-10897
▁sider	-10898
▁solve	-10899
▁sorry	-10900
▁sorts	-10901
▁spent	-10902
▁strug	-10903
▁sumin	-10904
▁susci	-10905
▁teach	-10906
▁teeth	-10907
▁theme	-10908
▁trate	-10909
▁trave	-10910
▁treat	-10911
▁trece	-10912
▁truly	-10913
▁urged	-10914
▁voice	-10915
▁volum	-10916
▁woman	-10917
▁write	-10918
▁young	-10919
▁Éstos	-10920
General	-10921
Tenemos	-10922
aestors	-10923
asòliba	-10924
benefit	-10925
bilidad	-10926
centaje	-10927
comings	-10928
curring	-10929
develop	-10930
edented	-10931
ellfish	-10932
engamos	-10933
ensible	-10934
entists	-10935
erstood	-10936
evident	-10937
ifiquen	-10938
istency	-10939
itation	-10940
itativa	-10941
located	-10942
mittees	-10943
nóstico	-10944
ologías	-10945
plácito	-10946
present	-10947
rupción	-10948
seekers	-10949
tionate	-10950
tlement	-10951
usiones	-10952
vereign	-10953
vertida	-10954
▁Canada	-10955
▁Canadá	-10956
▁Confío	-10957
▁Cámara	-10958
▁Frente	-10959
▁Fueron	-10960
▁Greens	-10961
▁Heaton	-10962
▁Invito	-10963
▁Javier	-10964
▁Luxemb	-10965
▁Madame	-10966
▁Margot	-10967
▁Modern	-10968
▁Países	-10969
▁Perman	-10970
▁Person	-10971
▁Pueblo	-10972
▁Radwan	-10973
▁Rapkay	-10974
▁Repito	-10975
▁Romano	-10976
▁Russia	-10977
▁Sabios	-10978
▁Verdes	-10979
▁abusos	-10980
▁acepta	-10981
▁acervo	-10982
▁acoger	-10983
▁acompa	-10984
▁active	-10985
▁adapta	-10986
▁afirma	-10987
▁aguard	-10988
▁ahorro	-10989
▁alegro	-10990
▁alerta	-10991
▁allows	-10992
▁altura	-10993
▁aporta	-10994
▁apoyan	-10995
▁asesor	-10996
▁ataque	-10997
▁atribu	-10998
▁autumn	-10999
▁awaits	-11000
▁ayuden	-11001
▁barcos	-11002
▁beings	-11003
▁bellas	-11004
▁border	-11005
▁bought	-11006
▁breach	-11007
▁cadena	-11008
▁cambia	-11009
▁cambie	-11010
▁cargos	-11011
▁charge	-11012
▁checks	-11013
▁chinas	-11014
▁choose	-11015
▁chosen	-11016
▁comply	-11017
▁conoce	-11018
▁conste	-11019
▁contes	-11020
▁convic	-11021
▁copias	-11022
▁corpus	-11023
▁covers	-11024
▁credit	-11025
▁crimes	-11026
▁cuales	-11027
▁cuente	-11028
▁cumbre	-11029
▁custom	-11030
▁dañada	-11031
▁delays	-11032
▁denoun	-11033
▁depart	-11034
▁detrás	-11035
▁devuel	-11036
▁dieron	-11037
▁dilema	-11038
▁donors	-11039
▁duplic	-11040
▁encima	-11041
▁endeav	-11042
▁enfati	-11043
▁entrar	-11044
▁episod	-11045
▁equipo	-11046
▁escasa	-11047
▁escaso	-11048
▁escánd	-11049
▁estuve	-11050
▁etapas	-11051
▁exhaus	-11052
▁exitos	-11053
▁fallen	-11054
▁farmer	-11055
▁flying	-11056
▁forese	-11057
▁former	-11058
▁fought	-11059
▁frágil	-11060
▁físico	-11061
▁gobern	-11062
▁guilty	-11063
▁habían	-11064
▁handed	-11065
▁impaci	-11066
▁incend	-11067
▁income	-11068
▁indemn	-11069
▁indica	-11070
▁indign	-11071
▁inglés	-11072
▁inicie	-11073
▁inicio	-11074
▁interc	-11075
▁interf	-11076
▁invent	-11077
▁larger	-11078
▁legíti	-11079
▁length	-11080
▁lesson	-11081
▁limite	-11082
▁linked	-11083
▁looked	-11084
▁losses	-11085
▁malent	-11086
▁median	-11087
▁memory	-11088
▁mining	-11089
▁misman	-11090
▁obtain	-11091
▁ofrece	-11092
▁opción	-11093
▁owners	-11094
▁pagará	-11095
▁parado	-11096
▁patrim	-11097
▁peores	-11098
▁perfec	-11099
▁pesada	-11100
▁pollut	-11101
▁predic	-11102
▁prejud	-11103
▁presos	-11104
▁protes	-11105
▁proved	-11106
▁quejas	-11107
▁racism	-11108
▁rating	-11109
▁recoge	-11110
▁recorr	-11111
▁repair	-11112
▁repite	-11113
▁resemb	-11114
▁restor	-11115
▁retain	-11116
▁retard	-11117
▁rostro	-11118
▁sabido	-11119
▁sacado	-11120
▁salmón	-11121
▁salute	-11122
▁salvar	-11123
▁season	-11124
▁serían	-11125
▁severe	-11126
▁shares	-11127
▁silent	-11128
▁smooth	-11129
▁solved	-11130
▁stance	-11131
▁suceso	-11132
▁suited	-11133
▁survey	-11134
▁símbol	-11135
▁tardar	-11136
▁tender	-11137
▁termed	-11138
▁thanks	-11139
▁thrown	-11140
▁timber	-11141
▁tomará	-11142
▁treaty	-11143
▁tribut	-11144
▁turned	-11145
▁uneven	-11146
▁united	-11147
▁unprec	-11148
▁upheld	-11149
▁upside	-11150
▁uranio	-11151
▁utmost	-11152
▁vergon	-11153
▁viendo	-11154
▁visita	-11155
▁votará	-11156
▁vuelto	-11157
▁vuelve	-11158
▁wealth	-11159
▁weapon	-11160
▁wholly	-11161
▁widely	-11162
▁étnica	-11163
▁órgano	-11164
▁útiles	-11165
Derechos	-11166
Queremos	-11167
andrakis	-11168
ibunales	-11169
istencia	-11170
tidumbre	-11171
tionally	-11172
uestores	-11173
vivencia	-11174
▁Adjourn	-11175
▁Affairs	-11176
▁Alexand	-11177
▁Alianza	-11178
▁Asuntos	-11179
▁Belgium	-11180
▁Conserv	-11181
▁Correos	-11182
▁Culture	-11183
▁Eastern	-11184
▁Existen	-11185
▁Flandes	-11186
▁Heights	-11187
▁Italian	-11188
▁Kosovar	-11189
▁Nations	-11190
▁Neither	-11191
▁Ninguna	-11192
▁Oficina	-11193
▁Partido	-11194
▁Pasamos	-11195
▁Querría	-11196
▁Segunda	-11197
▁Several	-11198
▁Society	-11199
▁Special	-11200
▁Tercero	-11201
▁Termino	-11202
▁Various	-11203
▁Welcome	-11204
▁accepts	-11205
▁adhered	-11206
▁adhiero	-11207
▁advised	-11208
▁afectan	-11209
▁amistad	-11210
▁apruebe	-11211
▁apuesta	-11212
▁apuntan	-11213
▁aquello	-11214
▁arrives	-11215
▁attempt	-11216
▁broader	-11217
▁broadly	-11218
▁católic	-11219
▁celebra	-11220
▁centres	-11221
▁certeza	-11222
▁cheaper	-11223
▁ciencia	-11224
▁cientos	-11225
▁cometen	-11226
▁comunes	-11227
▁concedo	-11228
▁condena	-11229
▁conduce	-11230
▁conllev	-11231
▁constra	-11232
▁cortina	-11233
▁creíble	-11234
▁crédito	-11235
▁cumplen	-11236
▁daneses	-11237
▁decidir	-11238
▁dirigir	-11239
▁diseñar	-11240
▁ecosist	-11241
▁ecosyst	-11242
▁elderly	-11243
▁empobre	-11244
▁engaños	-11245
▁entails	-11246
▁entrega	-11247
▁equally	-11248
▁equivoc	-11249
▁estaban	-11250
▁estabil	-11251
▁estemos	-11252
▁evident	-11253
▁excluye	-11254
▁explici	-11255
▁exposed	-11256
▁figuran	-11257
▁finance	-11258
▁footing	-11259
▁forests	-11260
▁forever	-11261
▁founded	-11262
▁fuentes	-11263
▁futuros	-11264
▁fórmula	-11265
▁generos	-11266
▁gesture	-11267
▁grounds	-11268
▁haberse	-11269
▁hablará	-11270
▁haremos	-11271
▁helping	-11272
▁highest	-11273
▁himself	-11274
▁humanas	-11275
▁husband	-11276
▁impacto	-11277
▁informó	-11278
▁infraes	-11279
▁inicial	-11280
▁inmensa	-11281
▁inneces	-11282
▁instead	-11283
▁intenta	-11284
▁introdu	-11285
▁involve	-11286
▁isolate	-11287
▁israelí	-11288
▁jointly	-11289
▁keeping	-11290
▁labores	-11291
▁lagunas	-11292
▁lamenta	-11293
▁largest	-11294
▁leading	-11295
▁learned	-11296
▁letters	-11297
▁llamada	-11298
▁located	-11299
▁mandate	-11300
▁manejar	-11301
▁marinos	-11302
▁meaning	-11303
▁mediana	-11304
▁molesto	-11305
▁ninguno	-11306
▁nowhere	-11307
▁ocurran	-11308
▁offices	-11309
▁olvidar	-11310
▁overdue	-11311
▁package	-11312
▁paquete	-11313
▁pedirle	-11314
▁pending	-11315
▁perdido	-11316
▁permito	-11317
▁pertain	-11318
▁piensos	-11319
▁planeta	-11320
▁playing	-11321
▁plurian	-11322
▁ponerse	-11323
▁poorest	-11324
▁posibil	-11325
▁postman	-11326
▁potable	-11327
▁preside	-11328
▁privati	-11329
▁produjo	-11330
▁profile	-11331
▁propias	-11332
▁publish	-11333
▁puertas	-11334
▁puertos	-11335
▁puntual	-11336
▁pursued	-11337
▁putting	-11338
▁rapidly	-11339
▁realice	-11340
▁reempla	-11341
▁refería	-11342
▁regrets	-11343
▁regulen	-11344
▁reparto	-11345
▁resolve	-11346
▁respeta	-11347
▁respete	-11348
▁reverse	-11349
▁rápidos	-11350
▁saldría	-11351
▁seguros	-11352
▁sending	-11353
▁serbias	-11354
▁serbios	-11355
▁settled	-11356
▁señoras	-11357
▁shaping	-11358
▁shorter	-11359
▁showing	-11360
▁sienten	-11361
▁simples	-11362
▁smaller	-11363
▁sources	-11364
▁species	-11365
▁started	-11366
▁stepped	-11367
▁storage	-11368
▁strange	-11369
▁subsidy	-11370
▁sugerir	-11371
▁sumarme	-11372
▁suprima	-11373
▁survive	-11374
▁suscita	-11375
▁swiftly	-11376
▁tenerlo	-11377
▁tomarse	-11378
▁tonight	-11379
▁torment	-11380
▁tourist	-11381
▁tráfico	-11382
▁tuviera	-11383
▁tuvimos	-11384
▁updated	-11385
▁uranium	-11386
▁utterly	-11387
▁validez	-11388
▁vecinos	-11389
▁verific	-11390
▁votamos	-11391
▁votemos	-11392
▁warning	-11393
▁western	-11394
▁witness	-11395
amentales	-11396
iblemente	-11397
intention	-11398
locutores	-11399
mountable	-11400
sensitive	-11401
tructuras	-11402
uccessful	-11403
▁Ambiente	-11404
▁Attwooll	-11405
▁Babitski	-11406
▁Babitsky	-11407
▁Birmania	-11408
▁Conviene	-11409
▁Democrat	-11410
▁Deseamos	-11411
▁Director	-11412
▁Gasòliba	-11413
▁Israelis	-11414
▁Kosovars	-11415
▁Michelin	-11416
▁Northern	-11417
▁Oriental	-11418
▁Pesquera	-11419
▁Proposal	-11420
▁Together	-11421
▁abiertas	-11422
▁abiertos	-11423
▁acogemos	-11424
▁acordado	-11425
▁adequate	-11426
▁adoptada	-11427
▁advisers	-11428
▁alimenta	-11429
▁allowing	-11430
▁animales	-11431
▁answered	-11432
▁apertura	-11433
▁appeared	-11434
▁aprueben	-11435
▁audición	-11436
▁autonomy	-11437
▁breaking	-11438
▁brevedad	-11439
▁bringing	-11440
▁carrying	-11441
▁category	-11442
▁certific	-11443
▁chatarra	-11444
▁civilian	-11445
▁clearest	-11446
▁coincido	-11447
▁colossal	-11448
▁cometido	-11449
▁comienza	-11450
▁commence	-11451
▁communit	-11452
▁compañía	-11453
▁complace	-11454
▁computer	-11455
▁condenar	-11456
▁confused	-11457
▁contacts	-11458
▁cuarenta	-11459
▁currency	-11460
▁decidida	-11461
▁decisiva	-11462
▁declarar	-11463
▁defining	-11464
▁delicate	-11465
▁demanded	-11466
▁deployed	-11467
▁derivado	-11468
▁desafíos	-11469
▁describe	-11470
▁desencad	-11471
▁desguace	-11472
▁designed	-11473
▁desmante	-11474
▁detected	-11475
▁deterior	-11476
▁disagree	-11477
▁disgrace	-11478
▁dissemin	-11479
▁distingu	-11480
▁distinta	-11481
▁división	-11482
▁donantes	-11483
▁dotación	-11484
▁doubtful	-11485
▁efectuar	-11486
▁ejemplar	-11487
▁elaborar	-11488
▁empezado	-11489
▁empiezan	-11490
▁employed	-11491
▁enabling	-11492
▁encuentr	-11493
▁enlarged	-11494
▁ensuring	-11495
▁entirely	-11496
▁entitled	-11497
▁envisage	-11498
▁equation	-11499
▁equivale	-11500
▁especula	-11501
▁estatuto	-11502
▁estipula	-11503
▁everyday	-11504
▁exciting	-11505
▁exigimos	-11506
▁expertos	-11507
▁financia	-11508
▁flooding	-11509
▁foremost	-11510
▁francesa	-11511
▁fruitful	-11512
▁generous	-11513
▁genocide	-11514
▁habremos	-11515
▁handling	-11516
▁hundreds	-11517
▁identify	-11518
▁ilustrar	-11519
▁immunity	-11520
▁impulsar	-11521
▁includes	-11522
▁inconven	-11523
▁indígena	-11524
▁instance	-11525
▁interfer	-11526
▁internas	-11527
▁invertir	-11528
▁juristas	-11529
▁laudable	-11530
▁likewise	-11531
▁limitada	-11532
▁limitaré	-11533
▁liveliho	-11534
▁llegamos	-11535
▁managers	-11536
▁mantenga	-11537
▁marcador	-11538
▁marítima	-11539
▁meantime	-11540
▁mecánica	-11541
▁mejorado	-11542
▁mencione	-11543
▁mensajes	-11544
▁messages	-11545
▁millions	-11546
▁ministro	-11547
▁misiones	-11548
▁misunder	-11549
▁modernos	-11550
▁naciones	-11551
▁negocios	-11552
▁numerous	-11553
▁objeción	-11554
▁observar	-11555
▁occupied	-11556
▁offences	-11557
▁offering	-11558
▁oponemos	-11559
▁opposite	-11560
▁orgullos	-11561
▁outdated	-11562
▁outlined	-11563
▁pabellón	-11564
▁patently	-11565
▁pensamos	-11566
▁pensions	-11567
▁perfecta	-11568
▁pesquero	-11569
▁petróleo	-11570
▁physical	-11571
▁pidiendo	-11572
▁planning	-11573
▁plantean	-11574
▁policial	-11575
▁policías	-11576
▁ponernos	-11577
▁pongamos	-11578
▁preclude	-11579
▁precondi	-11580
▁predomin	-11581
▁presenci	-11582
▁presents	-11583
▁prestado	-11584
▁primeras	-11585
▁privadas	-11586
▁proclaim	-11587
▁procurar	-11588
▁produzca	-11589
▁propongo	-11590
▁prospect	-11591
▁prórroga	-11592
▁pursuant	-11593
▁párrafos	-11594
▁pérdidas	-11595
▁queridos	-11596
▁reassure	-11597
▁reciclar	-11598
▁reconoce	-11599
▁recortes	-11600
▁recuerdo	-11601
▁recurrir	-11602
▁reducido	-11603
▁regulate	-11604
▁repeated	-11605
▁replaced	-11606
▁retórica	-11607
▁rhetoric	-11608
▁seguirán	-11609
▁selected	-11610
▁separado	-11611
▁simpatía	-11612
▁solicita	-11613
▁sometida	-11614
▁sorprend	-11615
▁southern	-11616
▁splendid	-11617
▁standard	-11618
▁starting	-11619
▁straight	-11620
▁stronger	-11621
▁suggests	-11622
▁superado	-11623
▁supervis	-11624
▁survival	-11625
▁suscrito	-11626
▁suspende	-11627
▁terrenos	-11628
▁tranquil	-11629
▁tratarse	-11630
▁uniforme	-11631
▁unwanted	-11632
▁validity	-11633
▁ventajas	-11634
▁vertidos	-11635
▁vigorous	-11636
▁watching	-11637
ographical	-11638
presidente	-11639
▁Autoridad	-11640
▁Berenguer	-11641
▁Categoría	-11642
▁Estructur	-11643
▁Naturally	-11644
▁Palestina	-11645
▁Paragraph	-11646
▁Preguntas	-11647
▁Servicios	-11648
▁Wednesday	-11649
▁Yesterday	-11650
▁abolished	-11651
▁abstenido	-11652
▁accidente	-11653
▁achieving	-11654
▁adelantar	-11655
▁admisible	-11656
▁alcohólic	-11657
▁altamente	-11658
▁ambiciosa	-11659
▁amenazada	-11660
▁amenazado	-11661
▁aplicarlo	-11662
▁armonizar	-11663
▁artículos	-11664
▁atenernos	-11665
▁averiguar	-11666
▁awareness	-11667
▁basically	-11668
▁behaviour	-11669
▁celebrará	-11670
▁centrarme	-11671
▁cincuenta	-11672
▁clarified	-11673
▁coastline	-11674
▁coherente	-11675
▁colaborar	-11676
▁combating	-11677
▁concluded	-11678
▁concretar	-11679
▁confirmed	-11680
▁confusión	-11681
▁constante	-11682
▁construir	-11683
▁contactos	-11684
▁contempla	-11685
▁continued	-11686
▁continues	-11687
▁contribut	-11688
▁convierta	-11689
▁costumbre	-11690
▁creciente	-11691
▁criticado	-11692
▁cruciales	-11693
▁cuantific	-11694
▁culpables	-11695
▁declarada	-11696
▁delegates	-11697
▁demanding	-11698
▁dependent	-11699
▁desgracia	-11700
▁despropor	-11701
▁destinada	-11702
▁detenerme	-11703
▁dictadura	-11704
▁difíciles	-11705
▁discrepan	-11706
▁disculpas	-11707
▁disminuir	-11708
▁dissatisf	-11709
▁educación	-11710
▁elaborado	-11711
▁emprender	-11712
▁encargará	-11713
▁enfrentan	-11714
▁enlarging	-11715
▁equipment	-11716
▁estaremos	-11717
▁estrictas	-11718
▁estudiado	-11719
▁expansion	-11720
▁expertise	-11721
▁exploited	-11722
▁explícita	-11723
▁expresado	-11724
▁extensión	-11725
▁favorecer	-11726
▁financing	-11727
▁flexibles	-11728
▁formation	-11729
▁funcionan	-11730
▁imponerse	-11731
▁improving	-11732
▁incidents	-11733
▁incluidas	-11734
▁incorrect	-11735
▁indicates	-11736
▁inflation	-11737
▁informará	-11738
▁inmediato	-11739
▁inquietud	-11740
▁insurance	-11741
▁intentado	-11742
▁intervene	-11743
▁investors	-11744
▁invisible	-11745
▁irregular	-11746
▁juveniles	-11747
▁leftovers	-11748
▁legislate	-11749
▁limitados	-11750
▁mantenido	-11751
▁marítimas	-11752
▁múltiples	-11753
▁naufragio	-11754
▁necesitar	-11755
▁necessity	-11756
▁normativa	-11757
▁numerosos	-11758
▁observado	-11759
▁observers	-11760
▁obstáculo	-11761
▁ocasionar	-11762
▁occurring	-11763
▁ocuparnos	-11764
▁oficiales	-11765
▁operators	-11766
▁organizar	-11767
▁participa	-11768
▁perceived	-11769
▁permitted	-11770
▁perseguir	-11771
▁preservar	-11772
▁previstos	-11773
▁prioritar	-11774
▁privilege	-11775
▁processes	-11776
▁producers	-11777
▁profundiz	-11778
▁protestas	-11779
▁providing	-11780
▁reciclaje	-11781
▁recientes	-11782
▁recordado	-11783
▁referente	-11784
▁referirse	-11785
▁reforzada	-11786
▁relevance	-11787
▁remaining	-11788
▁requisito	-11789
▁responded	-11790
▁retiraron	-11791
▁reuniones	-11792
▁selectiva	-11793
▁separated	-11794
▁serenidad	-11795
▁shellfish	-11796
▁shipwreck	-11797
▁sovereign	-11798
▁specified	-11799
▁stretched	-11800
▁subsidies	-11801
▁succeeded	-11802
▁supondría	-11803
▁sustained	-11804
▁terrorism	-11805
▁terrorist	-11806
▁threatens	-11807
▁tolerance	-11808
▁tolerated	-11809
▁trabajado	-11810
▁tradición	-11811
▁treatment	-11812
▁turística	-11813
▁violación	-11814
▁voluntary	-11815
▁votaremos	-11816
▁worldwide	-11817
▁Apparently	-11818
▁Convención	-11819
▁Desarrollo	-11820
▁Employment	-11821
▁Especially	-11822
▁Everything	-11823
▁Resolution	-11824
▁Socialista	-11825
▁abandonado	-11826
▁abstaining	-11827
▁acceptance	-11828
▁adequately	-11829
▁afirmación	-11830
▁agricultor	-11831
▁alcanzable	-11832
▁allocation	-11833
▁ambiciosos	-11834
▁ambigüedad	-11835
▁aplicables	-11836
▁approaches	-11837
▁assessment	-11838
▁attractive	-11839
▁austríacos	-11840
▁background	-11841
▁bienvenido	-11842
▁científica	-11843
▁científico	-11844
▁codecision	-11845
▁coherentes	-11846
▁committees	-11847
▁comparison	-11848
▁compensate	-11849
▁concepción	-11850
▁constituir	-11851
▁convencida	-11852
▁criticised	-11853
▁debatiendo	-11854
▁definitiva	-11855
▁deplorable	-11856
▁despertado	-11857
▁devolución	-11858
▁dificultad	-11859
▁diplomatic	-11860
▁emergencia	-11861
▁emphasised	-11862
▁encouraged	-11863
▁energético	-11864
▁entredicho	-11865
▁entreprene	-11866
▁equitativa	-11867
▁equivalent	-11868
▁esforzarse	-11869
▁everywhere	-11870
▁excelentes	-11871
▁exceptions	-11872
▁existiendo	-11873
▁exposición	-11874
▁expressing	-11875
▁expression	-11876
▁fortalecer	-11877
▁fragmented	-11878
▁hubiéramos	-11879
▁imposición	-11880
▁inadequate	-11881
▁incompleta	-11882
▁incomplete	-11883
▁incorporar	-11884
▁insecurity	-11885
▁inspectors	-11886
▁lamentamos	-11887
▁legitimacy	-11888
▁legitimate	-11889
▁licitación	-11890
▁limitación	-11891
▁lograremos	-11892
▁millennium	-11893
▁modernised	-11894
▁modificada	-11895
▁modificado	-11896
▁monopolies	-11897
▁neerlandés	-11898
▁objeciones	-11899
▁operations	-11900
▁opposition	-11901
▁organizado	-11902
▁overriding	-11903
▁parameters	-11904
▁partidario	-11905
▁peligrosos	-11906
▁periódicos	-11907
▁pertaining	-11908
▁pescadores	-11909
▁peticiones	-11910
▁planteadas	-11911
▁politician	-11912
▁porcentaje	-11913
▁preguntado	-11914
▁preparando	-11915
▁preventing	-11916
▁proceeding	-11917
▁producirse	-11918
▁progressed	-11919
▁prohibited	-11920
▁propaganda	-11921
▁propiciado	-11922
▁prosecuted	-11923
▁prosecutor	-11924
▁protecting	-11925
▁quinquenal	-11926
▁realizados	-11927
▁reasonably	-11928
▁rechazamos	-11929
▁reconsider	-11930
▁redistribu	-11931
▁references	-11932
▁renacional	-11933
▁renational	-11934
▁renewables	-11935
▁renovación	-11936
▁represento	-11937
▁respetamos	-11938
▁salvaguard	-11939
▁scandalous	-11940
▁scientists	-11941
▁separación	-11942
▁sobrevivir	-11943
▁sugerencia	-11944
▁supplement	-11945
▁supporting	-11946
▁surprising	-11947
▁tembladera	-11948
▁testimonio	-11949
▁thoroughly	-11950
▁tolerancia	-11951
▁trabajemos	-11952
▁transcurso	-11953
▁transmitir	-11954
▁underestim	-11955
▁underlined	-11956
▁understood	-11957
▁volveremos	-11958
▁whatsoever	-11959
▁Adjournment	-11960
▁Nonetheless	-11961
▁Permítaseme	-11962
▁Reconocemos	-11963
▁actuaciones	-11964
▁acuicultura	-11965
▁agriculture	-11966
▁ampliamente	-11967
▁astonishing	-11968
▁beneficiado	-11969
▁beneplácito	-11970
▁bureaucracy	-11971
▁comerciales	-11972
▁compliments	-11973
▁componentes	-11974
▁composición	-11975
▁comprendido	-11976
▁conscientes	-11977
▁consecución	-11978
▁consecuente	-11979
▁conseguirlo	-11980
▁consumption	-11981
▁contestarán	-11982
▁continental	-11983
▁contractual	-11984
▁contributed	-11985
▁countryside	-11986
▁derogations	-11987
▁diagnóstico	-11988
▁discusiones	-11989
▁discutiendo	-11990
▁disparities	-11991
▁disponibles	-11992
▁drastically	-11993
▁efficiently	-11994
▁eliminación	-11995
▁enforceable	-11996
▁enhorabuena	-11997
▁enormemente	-11998
▁equilibrada	-11999
▁equilibrado	-12000
▁específicas	-12001
▁estratégica	-12002
▁functioning	-12003
▁furthermore	-12004
▁gestionando	-12005
▁gobernación	-12006
▁indicadores	-12007
▁inquietante	-12008
▁interdepend	-12009
▁interpreted	-12010
▁introducing	-12011
▁irreparable	-12012
▁justificado	-12013
▁legitimidad	-12014
▁maintaining	-12015
▁mencionados	-12016
▁multiannual	-12017
▁negligencia	-12018
▁objectively	-12019
▁orientación	-12020
▁participado	-12021
▁participate	-12022
▁partidarios	-12023
▁pertinentes	-12024
▁precedentes	-12025
▁preguntamos	-12026
▁preocupados	-12027
▁preparación	-12028
▁preventivas	-12029
▁problematic	-12030
▁procedencia	-12031
▁proceedings	-12032
▁profundizar	-12033
▁prolongados	-12034
▁propietario	-12035
▁proporciona	-12036
▁recognition	-12037
▁referencias	-12038
▁regrettable	-12039
▁requirement	-12040
▁seguramente	-12041
▁significado	-12042
▁sistemática	-12043
▁solucionado	-12044
▁speculative	-12045
▁tecnologías	-12046
▁territorios	-12047
▁threatening	-12048
▁transportan	-12049
▁transported	-12050
▁uncertainty	-12051
▁undoubtedly	-12052
▁unification	-12053
▁vaccination	-12054
▁Examinaremos	-12055
▁Interrupción	-12056
▁aproximación	-12057
▁asociaciones	-12058
▁aspiraciones	-12059
▁availability	-12060
▁compensación	-12061
▁conservation	-12062
▁considerarse	-12063
▁consistently	-12064
▁constitución	-12065
▁construction	-12066
▁consultation	-12067
▁contaminated	-12068
▁cumplimiento	-12069
▁demonstrated	-12070
▁desperdicios	-12071
▁difícilmente	-12072
▁disagreement	-12073
▁enfermedades	-12074
▁especulación	-12075
▁expresamente	-12076
▁illustration	-12077
▁incorporated	-12078
▁instrumental	-12079
▁intellectual	-12080
▁intensamente	-12081
▁interesantes	-12082
▁inundaciones	-12083
▁investigated	-12084
▁jurisdiction	-12085
▁limitaciones	-12086
▁militarmente	-12087
▁multilateral	-12088
▁obligaciones	-12089
▁observadores	-12090
▁observations	-12091
▁ordenamiento	-12092
▁plantearemos	-12093
▁preguntarnos	-12094
▁preparations	-12095
▁preparativos	-12096
▁prerequisite	-12097
▁preventative	-12098
▁propietarios	-12099
▁questionable	-12100
▁shortcomings	-12101
▁solicitantes	-12102
▁sufrimientos	-12103
▁traducciones	-12104
▁universality	-12105
▁verificación	-12106
▁verification	-12107
▁Alyssandrakis	-12108
▁Estructurales	-12109
▁Internacional	-12110
▁beneficiarios	-12111
▁concretamente	-12112
▁contaminantes	-12113
▁continuamente	-12114
▁controversial	-12115
▁controvertida	-12116
▁desarrollando	-12117
▁desarrollarse	-12118
▁detenidamente	-12119
▁determinación	-12120
▁incorporación	-12121
▁independiente	-12122
▁instalaciones	-12123
▁institutional	-12124
▁insuficientes	-12125
▁jurídicamente	-12126
▁objetivamente	-12127
▁parlamentaria	-12128
▁políticamente	-12129
▁recientemente	-12130
▁repercussions	-12131
▁satisfactorio	-12132
▁sencillamente	-12133
▁strengthening	-12134
▁supervivencia	-12135
▁transacciones	-12136
▁universalidad	-12137
▁unprecedented	-12138
▁Presupuestario	-12139
▁comunicaciones	-12140
▁contradictions	-12141
▁disponibilidad	-12142
▁económicamente	-12143
▁estabilización	-12144
▁extraordinaria	-12145
▁extraordinario	-12146
▁infrastructure	-12147
▁insurmountable	-12148
▁interlocutores	-12149
▁interpretation	-12150
▁necesariamente	-12151
▁organizaciones	-12152
▁reconciliation	-12153
▁reconstrucción	-12154
▁reconstruction	-12155
▁representación	-12156
▁representative	-12157
▁systematically	-12158
▁automáticamente	-12159
▁características	-12160
▁complementarias	-12161
▁contradictorias	-12162
▁establecimiento	-12163
▁inevitablemente	-12164
▁multinacionales	-12165
▁norteamericanos	-12166
▁presupuestarias	-12167
▁socialdemócrata	-12168
(1)	-12169
10,	-12170
2-5	-12171
35/	-12172
409	-12173
74,	-12174
82.	-12175
9%.	-12176
IFI	-12177
LTU	-12178
MIK	-12179
PIC	-12180
bek	-12181
eaz	-12182
nah	-12183
oij	-12184
ynn	-12185
örr	-12186
▁+.	-12187
-011	-12188
-012	-12189
/35/	-12190
/409	-12191
382.	-12192
4012	-12193
ASDA	-12194
Desa	-12195
IFIL	-12196
OPIC	-12197
UALI	-12198
ULTU	-12199
43.	-12200
CIA	-12201
UEN	-12202
/43.	-12203
Cabe	-12204
acao	-12205
buja	-12206
cleo	-12207
ctur	-12208
eote	-12209
evit	-12210
eway	-12211
gypt	-12212
haul	-12213
ibió	-12214
ijan	-12215
isky	-12216
kelk	-12217
lsru	-12218
nake	-12219
nörr	-12220
ozco	-12221
quív	-12222
sats	-12223
tats	-12224
uori	-12225
yrgy	-12226
zbek	-12227
árse	-12228
▁1%.	-12229
▁152	-12230
▁164	-12231
▁17,	-12232
▁20,	-12233
▁22.	-12234
▁245	-12235
▁25-	-12236
▁34,	-12237
▁35%	-12238
▁36,	-12239
▁39,	-12240
▁40,	-12241
▁41%	-12242
▁47.	-12243
▁50%	-12244
▁50.	-12245
▁60,	-12246
▁62,	-12247
▁70/	-12248
▁71.	-12249
▁88,	-12250
▁93,	-12251
▁94,	-12252
▁Abs	-12253
▁Art	-12254
▁CAC	-12255
▁ELD	-12256
▁EPP	-12257
▁Hág	-12258
▁ICT	-12259
▁OMI	-12260
▁OTC	-12261
▁Obs	-12262
▁Rhô	-12263
▁Sui	-12264
▁Taj	-12265
▁UNI	-12266
▁WCT	-12267
▁cár	-12268
▁cír	-12269
▁odd	-12270
▁rub	-12271
-0028	-12272
-0040	-12273
-0780	-12274
-0781	-12275
-382.	-12276
-4012	-12277
2-512	-12278
2/43.	-12279
6/35/	-12280
ASDAQ	-12281
Alpes	-12282
Conse	-12283
Sería	-12284
anzan	-12285
archy	-12286
build	-12287
choed	-12288
chool	-12289
cidió	-12290
ciénd	-12291
diano	-12292
ecedo	-12293
estag	-12294
eties	-12295
finan	-12296
fobia	-12297
ganda	-12298
gipto	-12299
44.	-12300
étn	-12301
▁107	-12302
▁ACT	-12303
iblio	-12304
iefly	-12305
iejos	-12306
ilocu	-12307
iprio	-12308
kling	-12309
known	-12310
looij	-12311
mería	-12312
nerst	-12313
nisch	-12314
ogerá	-12315
olson	-12316
poses	-12317
ragos	-12318
ricul	-12319
roval	-12320
spera	-12321
tacle	-12322
tomas	-12323
tónio	-12324
ucaso	-12325
unfar	-12326
ureau	-12327
urphy	-12328
uteau	-12329
xiste	-12330
yrgyz	-12331
ánche	-12332
étera	-12333
óxima	-12334
▁1762	-12335
▁194.	-12336
▁1980	-12337
▁20%,	-12338
▁2003	-12339
▁2004	-12340
▁248,	-12341
▁332,	-12342
▁50%.	-12343
▁Apoy	-12344
▁Bulg	-12345
▁Cauc	-12346
▁Code	-12347
▁Cush	-12348
▁Digo	-12349
▁Exig	-12350
▁FIPO	-12351
▁Goll	-12352
▁Jean	-12353
▁Malt	-12354
▁Mesa	-12355
▁Nego	-12356
▁Opin	-12357
▁Rojo	-12358
▁Save	-12359
▁Sudá	-12360
▁Volv	-12361
▁Vuel	-12362
▁amaz	-12363
▁anex	-12364
▁army	-12365
▁aval	-12366
▁book	-12367
▁burn	-12368
▁cita	-12369
▁cuts	-12370
▁diox	-12371
▁dump	-12372
▁escé	-12373
▁fije	-12374
▁gaps	-12375
▁hipó	-12376
▁hunt	-12377
▁jefe	-12378
▁knew	-12379
▁mamm	-12380
▁mamí	-12381
▁maso	-12382
▁ojos	-12383
▁prag	-12384
▁trou	-12385
▁wave	-12386
1-382.	-12387
2-5122	-12388
5-0028	-12389
5-0073	-12390
5-0082	-12391
5-0105	-12392
5-0164	-12393
5-0167	-12394
5-0180	-12395
Existe	-12396
OPICAL	-12397
abinet	-12398
adline	-12399
aje	-12400
gni	-12401
ayik	-12402
como	-12403
cuál	-12404
gled	-12405
lane	-12406
▁38,	-12407
▁Cód	-12408
▁Nik	-12409
▁iré	-12410
banon	-12411
engie	-12412
phere	-12413
rocar	-12414
▁crux	-12415
▁soph	-12416
▁suje	-12417
2/99):	-12418
ancing	-12419
anisms	-12420
author	-12421
bastic	-12422
cusión	-12423
eazley	-12424
ecidas	-12425
econte	-12426
efront	-12427
ethnic	-12428
etrole	-12429
gotten	-12430
gueira	-12431
ieties	-12432
iático	-12433
kellar	-12434
lawful	-12435
lelers	-12436
lining	-12437
lsruhe	-12438
lsthom	-12439
magino	-12440
mitirá	-12441
mulate	-12442
ntomas	-12443
onerse	-12444
pticos	-12445
ráneas	-12446
satsos	-12447
uckelk	-12448
urpose	-12449
uvimos	-12450
ámenes	-12451
ánchez	-12452
ántico	-12453
ército	-12454
íbamos	-12455
ícolas	-12456
ífugos	-12457
ñarnos	-12458
örling	-12459
▁10.40	-12460
▁12.40	-12461
▁1762.	-12462
▁1910,	-12463
▁1974,	-12464
▁1988,	-12465
▁1995,	-12466
▁1995.	-12467
▁1997,	-12468
▁1997?	-12469
▁2006.	-12470
▁2010.	-12471
▁2020.	-12472
▁37(2)	-12473
▁Above	-12474
▁Abuja	-12475
▁Arian	-12476
▁Balfe	-12477
▁Barce	-12478
▁Being	-12479
▁Berni	-12480
▁Bowis	-12481
▁Bueno	-12482
▁CULTU	-12483
▁Chile	-12484
▁Copen	-12485
▁Dicha	-12486
▁Effec	-12487
▁Egypt	-12488
▁FIPOL	-12489
▁Falun	-12490
▁Fraga	-12491
▁Franz	-12492
▁Green	-12493
▁Guter	-12494
▁Había	-12495
▁Hecke	-12496
▁Ingle	-12497
▁Insis	-12498
▁Jonas	-12499
▁6%	-12500
noye	-12501
opía	-12502
zcan	-12503
criba	-12504
house	-12505
lobal	-12506
opard	-12507
timum	-12508
uties	-12509
vejas	-12510
▁IIIA	-12511
▁Tell	-12512
▁caña	-12513
▁coop	-12514
▁fell	-12515
▁surf	-12516
0/00):	-12517
3/00):	-12518
7-4012	-12519
ficial	-12520
ibutes	-12521
nected	-12522
tiopía	-12523
ómicos	-12524
▁Karam	-12525
▁Lanck	-12526
▁Lands	-12527
▁Marke	-12528
▁Medit	-12529
▁Michi	-12530
▁Mujer	-12531
▁Nikit	-12532
▁Norue	-12533
▁Nueva	-12534
▁Paolo	-12535
▁Peace	-12536
▁Power	-12537
▁Putin	-12538
▁Queir	-12539
▁Racan	-12540
▁Reyes	-12541
▁Ruego	-12542
▁Saint	-12543
▁Segni	-12544
▁Serbi	-12545
▁Serbs	-12546
▁Spani	-12547
▁Speci	-12548
▁Sudan	-12549
▁Tayik	-12550
▁UNITA	-12551
▁UNMIK	-12552
▁Votar	-12553
▁Wuori	-12554
▁abogo	-12555
▁abren	-12556
▁abrig	-12557
▁abrum	-12558
▁abuso	-12559
▁accum	-12560
▁actor	-12561
▁adapt	-12562
▁alude	-12563
▁ambul	-12564
▁analy	-12565
▁antec	-12566
▁arduo	-12567
▁argue	-12568
▁arroj	-12569
▁asequ	-12570
▁asoci	-12571
▁asume	-12572
▁bajar	-12573
▁bajos	-12574
▁blind	-12575
▁boats	-12576
▁broke	-12577
▁bromo	-12578
▁cacao	-12579
▁camps	-12580
▁capit	-12581
▁catch	-12582
▁cifra	-12583
▁copia	-12584
▁curar	-12585
▁cuyas	-12586
▁cuyos	-12587
▁danés	-12588
▁denom	-12589
▁denun	-12590
▁depre	-12591
▁digan	-12592
▁digna	-12593
▁dilem	-12594
▁dinam	-12595
▁dirán	-12596
▁doctr	-12597
▁downf	-12598
▁encam	-12599
6).	-12600
▁76	-12601
▁78	-12602
gets	-12603
inct	-12604
pass	-12605
▁13-	-12606
▁784	-12607
▁85%	-12608
▁Wye	-12609
▁awk	-12610
antil	-12611
apeau	-12612
crual	-12613
cture	-12614
ficie	-12615
fully	-12616
onial	-12617
tegra	-12618
tured	-12619
▁13-1	-12620
▁2001	-12621
▁sett	-12622
▁veux	-12623
iterge	-12624
▁13-14	-12625
▁2006,	-12626
▁Citiz	-12627
▁Elmar	-12628
▁englo	-12629
▁enseñ	-12630
▁escoc	-12631
▁facto	-12632
▁falsa	-12633
▁firma	-12634
▁flame	-12635
▁flora	-12636
▁flota	-12637
▁galax	-12638
▁golpe	-12639
▁grass	-12640
▁grava	-12641
▁gross	-12642
▁halla	-12643
▁heads	-12644
▁hecha	-12645
▁hosti	-12646
▁huido	-12647
▁image	-12648
▁immen	-12649
▁impag	-12650
▁inhab	-12651
▁jefes	-12652
▁jerar	-12653
▁kilos	-12654
▁kinds	-12655
▁kings	-12656
▁leads	-12657
▁likes	-12658
▁links	-12659
▁lists	-12660
▁llave	-12661
▁llena	-12662
▁logre	-12663
▁líder	-12664
▁maced	-12665
▁mammo	-12666
▁mixed	-12667
▁mobil	-12668
▁molus	-12669
▁nociv	-12670
▁nutsh	-12671
▁ocean	-12672
▁otorg	-12673
▁phras	-12674
▁piden	-12675
▁pione	-12676
▁plena	-12677
▁popul	-12678
▁portf	-12679
▁promp	-12680
▁prueb	-12681
▁queja	-12682
▁ricos	-12683
▁sadly	-12684
▁score	-12685
▁seafo	-12686
▁sexes	-12687
▁shift	-12688
▁sidel	-12689
▁sirva	-12690
▁sitúa	-12691
▁stark	-12692
▁style	-12693
▁sufra	-12694
▁swift	-12695
▁tabla	-12696
▁temor	-12697
▁tonel	-12698
▁trein	-12699
CRS	-12700
eft	-12701
elf	-12702
nel	-12703
ubl	-12704
▁KF	-12705
Area	-12706
bled	-12707
cino	-12708
iada	-12709
type	-12710
▁104	-12711
▁143	-12712
▁22,	-12713
▁KFO	-12714
▁coc	-12715
▁stu	-12716
arden	-12717
democ	-12718
inoch	-12719
lecom	-12720
unity	-12721
wenty	-12722
▁Dubl	-12723
▁KFOR	-12724
▁Left	-12725
▁Otra	-12726
▁SCRS	-12727
▁cane	-12728
▁city	-12729
▁dada	-12730
▁huev	-12731
▁impl	-12732
uccino	-12733
ísimos	-12734
▁2000"	-12735
▁2000,	-12736
▁Forum	-12737
▁Schip	-12738
▁elect	-12739
▁incer	-12740
▁trial	-12741
▁turns	-12742
▁twice	-12743
▁uncom	-12744
▁venga	-12745
▁versa	-12746
▁vería	-12747
▁virtu	-12748
▁wages	-12749
0/2000)	-12750
4/1999)	-12751
78/99):	-12752
9/1999)	-12753
95/00):	-12754
Alsthom	-12755
Consejo	-12756
Cultura	-12757
Culture	-12758
Desapar	-12759
Espacio	-12760
anchise	-12761
anwhile	-12762
anzania	-12763
astrous	-12764
atrocin	-12765
biotics	-12766
celerar	-12767
chester	-12768
citizen	-12769
cutible	-12770
eastern	-12771
ecision	-12772
endidos	-12773
estades	-12774
finding	-12775
fronter	-12776
inochet	-12777
iritual	-12778
isterna	-12779
itarrok	-12780
itergef	-12781
ittings	-12782
iversal	-12783
keeping	-12784
kellari	-12785
lligent	-12786
minster	-12787
olutely	-12788
onogram	-12789
onómica	-12790
orecido	-12791
ortesía	-12792
oseguir	-12793
playing	-12794
plished	-12795
prehens	-12796
quierdo	-12797
quívoca	-12798
rededor	-12799
hu	-12800
laz	-12801
odo	-12802
pia	-12803
▁1%	-12804
Todo	-12805
leib	-12806
olib	-12807
▁Ban	-12808
▁Dam	-12809
▁Day	-12810
▁Lap	-12811
▁fly	-12812
▁jue	-12813
▁ram	-12814
Piens	-12815
huber	-12816
iopia	-12817
lecos	-12818
pamos	-12819
ramos	-12820
tengo	-12821
using	-12822
▁2002	-12823
▁anne	-12824
▁arch	-12825
▁carg	-12826
▁crew	-12827
▁inac	-12828
▁plas	-12829
▁rige	-12830
5-0166	-12831
cienda	-12832
flecos	-12833
leiben	-12834
onomic	-12835
tirles	-12836
▁1998?	-12837
▁Banco	-12838
▁North	-12839
▁Parte	-12840
▁Rhône	-12841
▁derro	-12842
▁insuf	-12843
▁marea	-12844
▁temer	-12845
▁trees	-12846
▁tribu	-12847
Piensan	-12848
rificio	-12849
session	-12850
thiopia	-12851
through	-12852
tortion	-12853
udadano	-12854
uestren	-12855
ulhouse	-12856
unately	-12857
éntesis	-12858
ísticos	-12859
▁1997):	-12860
▁2000).	-12861
▁90/220	-12862
▁92/43.	-12863
▁96/35/	-12864
▁Alsace	-12865
▁Ariane	-12866
▁Barcel	-12867
▁Bernié	-12868
▁Beyond	-12869
▁Bureau	-12870
▁Cermis	-12871
▁Change	-12872
▁Coinci	-12873
▁Comart	-12874
▁Divers	-12875
▁Estuve	-12876
▁Faltan	-12877
▁Gallag	-12878
▁Global	-12879
▁Hadera	-12880
▁Health	-12881
▁Herman	-12882
▁Inevit	-12883
▁Italia	-12884
▁Kinder	-12885
▁Kyrgyz	-12886
▁Leader	-12887
▁London	-12888
▁Maaten	-12889
▁Madrid	-12890
▁Modrow	-12891
▁Morgan	-12892
▁Murphy	-12893
▁Myller	-12894
▁Plooij	-12895
▁Possel	-12896
▁Provan	-12897
▁Queiró	-12898
▁Quizás	-12899
Me	-12900
cke	-12901
exp	-12902
ped	-12903
pod	-12904
▁3:	-12905
Pero	-12906
icts	-12907
miss	-12908
mita	-12909
odos	-12910
udas	-12911
wage	-12912
▁Ast	-12913
▁Fre	-12914
▁UEN	-12915
▁bit	-12916
arset	-12917
ckets	-12918
ectar	-12919
erden	-12920
explo	-12921
idera	-12922
urado	-12923
▁Mill	-12924
▁aero	-12925
▁apli	-12926
▁glas	-12927
▁phen	-12928
▁pref	-12929
▁pris	-12930
▁sang	-12931
▁twel	-12932
ideraz	-12933
terror	-12934
▁2.000	-12935
▁Malms	-12936
▁Otros	-12937
▁aerop	-12938
▁amate	-12939
▁apres	-12940
▁below	-12941
▁refus	-12942
▁shado	-12943
▁sharp	-12944
ecogerá	-12945
endemos	-12946
ipriota	-12947
▁Hágase	-12948
▁Marset	-12949
▁Racist	-12950
▁Rather	-12951
▁Rengie	-12952
▁Respal	-12953
▁Schier	-12954
▁Seguro	-12955
▁Tercer	-12956
▁Teresa	-12957
▁Twenty	-12958
▁Uganda	-12959
▁Valent	-12960
▁Zimmer	-12961
▁aborde	-12962
▁acquis	-12963
▁actúen	-12964
▁acudir	-12965
▁acumul	-12966
▁acusar	-12967
▁afirmó	-12968
▁ajuste	-12969
▁alemán	-12970
▁alivio	-12971
▁amigos	-12972
▁aparte	-12973
▁aprobó	-12974
▁armada	-12975
▁arriba	-12976
▁asombr	-12977
▁atraer	-12978
▁attach	-12979
▁autobú	-12980
▁automa	-12981
▁begets	-12982
▁biblio	-12983
▁blanco	-12984
▁branch	-12985
▁busque	-12986
▁básica	-12987
▁cancer	-12988
▁causar	-12989
▁chinos	-12990
▁cierra	-12991
▁clases	-12992
▁clever	-12993
▁concur	-12994
▁cuarto	-12995
▁cumple	-12996
▁depriv	-12997
▁descar	-12998
▁desean	-12999
▁:	-13000
eli	-13001
pse	-13002
▁OA	-13003
fies	-13004
olio	-13005
rust	-13006
stán	-13007
urdo	-13008
änen	-13009
▁127	-13010
▁42,	-13011
▁Cop	-13012
▁aug	-13013
▁bra	-13014
▁flu	-13015
▁hul	-13016
actar	-13017
aputo	-13018
illon	-13019
itrea	-13020
raeli	-13021
terio	-13022
▁Cres	-13023
▁Esas	-13024
▁Hain	-13025
▁Ingl	-13026
▁Mons	-13027
▁OAMI	-13028
▁Rome	-13029
▁abar	-13030
▁acta	-13031
▁laid	-13032
▁pati	-13033
▁reap	-13034
▁tray	-13035
cionan	-13036
elante	-13037
ending	-13038
formed	-13039
izstán	-13040
ppänen	-13041
quired	-13042
▁2000'	-13043
▁Would	-13044
▁brind	-13045
▁consa	-13046
▁delib	-13047
▁indeb	-13048
▁notas	-13049
▁parod	-13050
▁posed	-13051
▁seres	-13052
entales	-13053
eration	-13054
idación	-13055
istrado	-13056
itación	-13057
▁Action	-13058
▁Crespo	-13059
▁Maputo	-13060
▁Monsie	-13061
▁Resolu	-13062
▁absorb	-13063
▁dictam	-13064
▁difund	-13065
▁dirijo	-13066
▁diverg	-13067
▁domici	-13068
▁dracon	-13069
▁duties	-13070
▁echoed	-13071
▁elogio	-13072
▁encont	-13073
▁eradic	-13074
▁estima	-13075
▁estimo	-13076
▁exacer	-13077
▁exceed	-13078
▁exclam	-13079
▁exhibi	-13080
▁facult	-13081
▁falsas	-13082
▁faltan	-13083
▁family	-13084
▁fijado	-13085
▁filtra	-13086
▁firmly	-13087
▁floods	-13088
▁fourth	-13089
▁fulles	-13090
▁fusión	-13091
▁geared	-13092
▁geopol	-13093
▁gestos	-13094
▁grants	-13095
▁guardi	-13096
▁hallar	-13097
▁halted	-13098
▁hereby	-13099
LI	-13100
LIV	-13101
RAD	-13102
blo	-13103
cac	-13104
mir	-13105
▁55	-13106
▁Lö	-13107
bado	-13108
cere	-13109
gues	-13110
igan	-13111
stom	-13112
zoso	-13113
▁54,	-13114
▁Löö	-13115
▁Nam	-13116
▁Yor	-13117
▁adu	-13118
▁asc	-13119
LIVER	-13120
ambre	-13121
cacci	-13122
gones	-13123
rgica	-13124
ropor	-13125
trico	-13126
▁HRAD	-13127
▁Josp	-13128
▁Lööw	-13129
▁Nami	-13130
▁Prev	-13131
▁York	-13132
▁elig	-13133
▁lobo	-13134
▁none	-13135
▁rent	-13136
▁whil	-13137
Alstom	-13138
LIVERY	-13139
ímenes	-13140
úrgica	-13141
▁Abogo	-13142
▁Rapid	-13143
▁abort	-13144
▁autón	-13145
▁exter	-13146
▁polac	-13147
▁tomen	-13148
mamente	-13149
ándonos	-13150
▁Dichas	-13151
▁Jospin	-13152
▁ascend	-13153
▁estilo	-13154
▁hambre	-13155
▁hermos	-13156
▁hinted	-13157
▁holoca	-13158
▁humans	-13159
▁idónea	-13160
▁idóneo	-13161
▁imagen	-13162
▁impuso	-13163
▁ingles	-13164
▁instin	-13165
▁juzgar	-13166
▁killed	-13167
▁launch	-13168
▁leeway	-13169
▁levant	-13170
▁listas	-13171
▁listed	-13172
▁logros	-13173
▁madera	-13174
▁maltes	-13175
▁marino	-13176
▁mechan	-13177
▁montón	-13178
▁mágica	-13179
▁nearly	-13180
▁neolib	-13181
▁noctur	-13182
▁notice	-13183
▁núcleo	-13184
▁obstin	-13185
▁occurs	-13186
▁ocupan	-13187
▁olvide	-13188
▁opened	-13189
▁oscura	-13190
▁papers	-13191
▁patria	-13192
▁pautas	-13193
▁percib	-13194
▁petrol	-13195
▁piense	-13196
▁places	-13197
▁plenty	-13198
▁preval	-13199
yl	-13200
bly	-13201
hul	-13202
rug	-13203
unk	-13204
▁Az	-13205
adly	-13206
amás	-13207
arre	-13208
iger	-13209
lied	-13210
ount	-13211
paci	-13212
unta	-13213
usch	-13214
vely	-13215
▁79.	-13216
▁Azn	-13217
▁Str	-13218
▁Via	-13219
▁mud	-13220
▁sud	-13221
5-006	-13222
cente	-13223
cidio	-13224
intos	-13225
tereo	-13226
uschw	-13227
▁cuán	-13228
▁degr	-13229
▁diam	-13230
▁dire	-13231
▁espe	-13232
adable	-13233
alista	-13234
amount	-13235
hulled	-13236
liegan	-13237
▁1244.	-13238
▁Aznar	-13239
▁Carin	-13240
▁Great	-13241
▁Sadly	-13242
▁Scott	-13243
▁Uzbek	-13244
▁jamás	-13245
▁scrap	-13246
▁smell	-13247
▁socio	-13248
pacitar	-13249
reshold	-13250
uitable	-13251
uschwit	-13252
▁URGENT	-13253
▁absurd	-13254
▁acarre	-13255
▁activa	-13256
▁atento	-13257
▁cuánto	-13258
▁degrad	-13259
▁lovely	-13260
▁podían	-13261
▁prever	-13262
▁profit	-13263
▁promul	-13264
▁pronta	-13265
▁puerto	-13266
▁pursue	-13267
▁pushed	-13268
▁recaen	-13269
▁reclut	-13270
▁refrán	-13271
▁regule	-13272
▁relies	-13273
▁reluct	-13274
▁remote	-13275
▁remove	-13276
▁rescue	-13277
▁resign	-13278
▁respec	-13279
▁resume	-13280
▁retire	-13281
▁retros	-13282
▁reveal	-13283
▁robust	-13284
▁rotund	-13285
▁sangre	-13286
▁saving	-13287
▁school	-13288
▁segura	-13289
▁sentir	-13290
▁shadow	-13291
▁shaken	-13292
▁slowly	-13293
▁solely	-13294
▁spared	-13295
▁suecos	-13296
▁sujeto	-13297
▁summar	-13298
▁suppor	-13299
yh	-13300
Des	-13301
elt	-13302
gia	-13303
tod	-13304
usk	-13305
▁Wa	-13306
▁kn	-13307
acul	-13308
beit	-13309
gada	-13310
iled	-13311
irth	-13312
mond	-13313
olit	-13314
risk	-13315
trol	-13316
yhun	-13317
▁1.2	-13318
▁Ira	-13319
▁Sam	-13320
▁Sur	-13321
▁Wah	-13322
▁beg	-13323
▁cay	-13324
▁div	-13325
▁fas	-13326
▁swe	-13327
5-008	-13328
Desea	-13329
cilar	-13330
cular	-13331
theid	-13332
uskal	-13333
▁Ring	-13334
▁blow	-13335
▁drew	-13336
▁poca	-13337
▁tome	-13338
▁went	-13339
5-0181	-13340
apolit	-13341
aymond	-13342
entaja	-13343
imente	-13344
quería	-13345
▁Ringh	-13346
▁Wahid	-13347
▁birth	-13348
▁delta	-13349
▁deple	-13350
▁foros	-13351
▁motiv	-13352
▁parce	-13353
▁plann	-13354
holders	-13355
▁Ceyhun	-13356
▁Euskal	-13357
▁albeit	-13358
▁cobrar	-13359
▁expand	-13360
▁ganado	-13361
▁mascul	-13362
▁someta	-13363
▁tackle	-13364
▁taught	-13365
▁tendré	-13366
▁tenían	-13367
▁teoría	-13368
▁thirty	-13369
▁thrust	-13370
▁timing	-13371
▁tonnes	-13372
▁topado	-13373
▁tripul	-13374
▁tropas	-13375
▁título	-13376
▁unfair	-13377
▁unidos	-13378
▁unwise	-13379
▁varita	-13380
▁vecino	-13381
▁vendav	-13382
▁viajar	-13383
▁viejos	-13384
▁voices	-13385
▁volume	-13386
▁warmly	-13387
▁weaker	-13388
▁werden	-13389
▁whilst	-13390
▁whisky	-13391
▁zoning	-13392
7-4012).	-13393
Aprovech	-13394
Comisión	-13395
Mulhouse	-13396
Recogerá	-13397
aculture	-13398
andaloso	-13399
),	-13400
MU	-13401
uo	-13402
▁«	-13403
dis	-13404
hud	-13405
jen	-13406
non	-13407
conf	-13408
enen	-13409
esar	-13410
gure	-13411
ored	-13412
time	-13413
▁EMU	-13414
▁dol	-13415
▁emb	-13416
▁lig	-13417
▁lip	-13418
▁soc	-13419
▁wal	-13420
abril	-13421
dujer	-13422
unded	-13423
urope	-13424
▁Ehud	-13425
acking	-13426
acques	-13427
ambios	-13428
cuándo	-13429
onemos	-13430
tienen	-13431
áramos	-13432
▁Están	-13433
▁bomba	-13434
▁brand	-13435
▁cesar	-13436
▁cruel	-13437
▁deals	-13438
▁matar	-13439
▁ocult	-13440
▁parar	-13441
▁plant	-13442
dujeron	-13443
licidad	-13444
▁Corpus	-13445
▁Mutual	-13446
▁bastan	-13447
▁cabeza	-13448
▁divide	-13449
▁refuer	-13450
829/99):	-13451
anquicia	-13452
atamente	-13453
ateboard	-13454
balanced	-13455
chamente	-13456
cionarán	-13457
cionista	-13458
citizens	-13459
ecciones	-13460
economic	-13461
emejante	-13462
emplamos	-13463
etroleum	-13464
gráficas	-13465
guizstán	-13466
honogram	-13467
iceconte	-13468
icholson	-13469
iderazgo	-13470
ierarchy	-13471
leetwood	-13472
nerstone	-13473
ondicion	-13474
ondremos	-13475
oriental	-13476
osamente	-13477
piración	-13478
ppuccino	-13479
proyecto	-13480
relación	-13481
unciando	-13482
undestag	-13483
uschwitz	-13484
▁(1996).	-13485
▁90/220.	-13486
▁ACTUALI	-13487
▁Aliment	-13488
▁Almería	-13489
▁Alsthom	-13490
▁Angolan	-13491
▁António	-13492
▁Aprecio	-13493
▁Brittan	-13494
▁Budgets	-13495
▁Colleag	-13496
▁Content	-13497
▁Country	-13498
▁Creamos	-13499
23	-13500
HI	-13501
TF	-13502
▁)	-13503
HIM	-13504
hal	-13505
olm	-13506
rem	-13507
ros	-13508
▁Ed	-13509
▁Ky	-13510
akes	-13511
arta	-13512
asen	-13513
locu	-13514
rais	-13515
reml	-13516
uctu	-13517
▁BTF	-13518
▁Did	-13519
▁Kyi	-13520
▁McK	-13521
▁inú	-13522
bando	-13523
erhal	-13524
estia	-13525
letos	-13526
tarlo	-13527
upuis	-13528
▁Depl	-13529
▁OHIM	-13530
▁caen	-13531
▁tank	-13532
▁tens	-13533
raisal	-13534
remlin	-13535
▁11.10	-13536
▁Claro	-13537
▁Japón	-13538
▁McKen	-13539
▁alcen	-13540
▁cerci	-13541
▁desas	-13542
▁llevó	-13543
▁preci	-13544
▁releg	-13545
▁sabrá	-13546
ambleas	-13547
▁Deplor	-13548
▁Dupuis	-13549
▁enable	-13550
▁esteem	-13551
▁fluctu	-13552
▁imagin	-13553
▁inútil	-13554
▁sombra	-13555
▁strike	-13556
▁subter	-13557
▁tanker	-13558
erhalten	-13559
locución	-13560
▁Cultura	-13561
▁Cumbres	-13562
▁Cushnah	-13563
▁Cáucaso	-13564
▁Defence	-13565
▁Despite	-13566
▁Empress	-13567
▁Eritrea	-13568
▁Etiopía	-13569
▁Experts	-13570
▁Faslane	-13571
▁Freedom	-13572
▁Galeote	-13573
▁Imagino	-13574
▁Institu	-13575
▁Jacques	-13576
▁Karaman	-13577
▁Kremlin	-13578
▁Kuckelk	-13579
▁Lancker	-13580
▁Lannoye	-13581
▁Laponia	-13582
▁Legisla	-13583
▁Londres	-13584
▁Maltese	-13585
▁McKenna	-13586
▁Michiel	-13587
▁Mujeres	-13588
▁Namibia	-13589
▁Nielsen	-13590
▁Nikitin	-13591
▁Noruega	-13592
▁Nuclear	-13593
▁Posselt	-13594
▁Quecedo	-13595
▁Reforma	-13596
▁Romania	-13597
▁Russian	-13598
▁Schipol	-13599
CA	-13600
Is	-13601
TO	-13602
Yo	-13603
cè	-13604
▁%	-13605
cès	-13606
ics	-13607
▁AN	-13608
35%.	-13609
cism	-13610
curo	-13611
elli	-13612
enal	-13613
etan	-13614
ipar	-13615
sets	-13616
undi	-13617
urio	-13618
élic	-13619
▁AND	-13620
▁Bos	-13621
▁Dis	-13622
▁Fer	-13623
▁Fut	-13624
▁Gar	-13625
▁WTO	-13626
▁bio	-13627
▁elu	-13628
▁fes	-13629
▁fla	-13630
▁rit	-13631
adero	-13632
ended	-13633
pland	-13634
welli	-13635
▁107,	-13636
▁Bosn	-13637
▁CECA	-13638
▁Esos	-13639
▁Side	-13640
▁emba	-13641
▁eros	-13642
▁vill	-13643
▁voic	-13644
Israel	-13645
raised	-13646
▁Heads	-13647
▁Penal	-13648
▁biodi	-13649
▁bélic	-13650
▁forms	-13651
▁gratu	-13652
▁grown	-13653
▁throw	-13654
▁unity	-13655
antizar	-13656
▁Bosnia	-13657
▁Egipto	-13658
▁Ferber	-13659
▁Future	-13660
▁Norway	-13661
▁assets	-13662
▁career	-13663
▁elucid	-13664
▁fields	-13665
▁oscuro	-13666
▁procès	-13667
▁repito	-13668
▁skills	-13669
▁someto	-13670
▁voiced	-13671
▁Lapland	-13672
▁Serbian	-13673
▁Stenmar	-13674
▁Sánchez	-13675
▁TOPICAL	-13676
▁Through	-13677
▁Tsatsos	-13678
▁Turkmen	-13679
▁Valonia	-13680
▁Veremos	-13681
▁Whether	-13682
▁abolish	-13683
▁abriría	-13684
▁absurdo	-13685
▁accrual	-13686
▁acogida	-13687
▁aconsej	-13688
▁activos	-13689
▁adopten	-13690
▁advance	-13691
▁agotado	-13692
▁ahorrar	-13693
▁airport	-13694
▁alcanza	-13695
▁alegría	-13696
▁alemana	-13697
▁aliviar	-13698
▁alturas	-13699
79	-13700
At	-13701
It	-13702
Eso	-13703
Pas	-13704
iat	-13705
udd	-13706
edas	-13707
emas	-13708
ourg	-13709
tent	-13710
uddh	-13711
upid	-13712
▁166	-13713
▁350	-13714
▁400	-13715
▁Cod	-13716
▁Mul	-13717
▁rid	-13718
▁seg	-13719
▁tit	-13720
▁ára	-13721
biera	-13722
icide	-13723
inter	-13724
▁Alic	-13725
▁Dare	-13726
▁Part	-13727
▁Wynn	-13728
▁afer	-13729
▁cuer	-13730
▁fría	-13731
▁rede	-13732
▁reún	-13733
▁shed	-13734
▁sums	-13735
▁wine	-13736
5-0179	-13737
▁Barón	-13738
▁Buddh	-13739
▁Tajik	-13740
▁World	-13741
▁front	-13742
country	-13743
▁Intent	-13744
▁Mulder	-13745
▁banner	-13746
▁conges	-13747
▁cuerpo	-13748
▁deaths	-13749
▁fantas	-13750
▁salida	-13751
▁stupid	-13752
▁utilic	-13753
▁Napolit	-13754
▁amongst	-13755
▁annexes	-13756
▁anuales	-13757
▁anuncia	-13758
▁anybody	-13759
▁aparece	-13760
▁apasion	-13761
▁aplican	-13762
▁aplique	-13763
▁aportan	-13764
▁aprecio	-13765
▁aquella	-13766
▁article	-13767
▁asegure	-13768
▁asistir	-13769
▁assured	-13770
▁atender	-13771
▁atentos	-13772
▁atraves	-13773
▁attacks	-13774
▁authors	-13775
▁autobús	-13776
▁autónom	-13777
▁average	-13778
▁awkward	-13779
▁backing	-13780
▁barrios	-13781
▁bebidas	-13782
▁biggest	-13783
▁bleiben	-13784
▁bloqueo	-13785
▁boundar	-13786
▁budgets	-13787
▁bygones	-13788
▁cabinet	-13789
▁calific	-13790
▁caluros	-13791
▁caminar	-13792
▁capable	-13793
▁carecen	-13794
▁carrera	-13795
▁cautela	-13796
▁ceiling	-13797
▁centran	-13798
▁cerrada	-13799
5.	-13800
Que	-13801
ués	-13802
cado	-13803
enic	-13804
ereg	-13805
iary	-13806
prud	-13807
▁95%	-13808
▁ECS	-13809
▁Lat	-13810
▁Señ	-13811
▁mez	-13812
▁mid	-13813
▁mía	-13814
▁pis	-13815
close	-13816
entos	-13817
onito	-13818
osing	-13819
oster	-13820
énero	-13821
▁105.	-13822
▁ECSC	-13823
▁Nada	-13824
▁miss	-13825
▁obsc	-13826
▁seal	-13827
▁unen	-13828
ensivo	-13829
itarse	-13830
ogenic	-13831
omenon	-13832
▁arena	-13833
▁dereg	-13834
▁envió	-13835
▁envío	-13836
▁lados	-13837
▁proli	-13838
▁track	-13839
▁unequ	-13840
amentos	-13841
visores	-13842
▁Latina	-13843
▁Veinte	-13844
▁adopts	-13845
▁bonito	-13846
▁conceb	-13847
▁cuarta	-13848
▁debata	-13849
▁desech	-13850
▁expire	-13851
▁foster	-13852
▁género	-13853
▁mérito	-13854
▁obtend	-13855
▁slicks	-13856
▁starts	-13857
41/2000)	-13858
▁Defensa	-13859
▁charged	-13860
▁charter	-13861
▁choices	-13862
▁ciertos	-13863
▁claimed	-13864
▁classes	-13865
▁cliente	-13866
▁coincid	-13867
▁colosal	-13868
▁command	-13869
▁compete	-13870
▁confron	-13871
▁confusa	-13872
▁conocen	-13873
▁consagr	-13874
▁consign	-13875
▁constar	-13876
▁constat	-13877
▁contend	-13878
▁crecido	-13879
▁creerlo	-13880
▁cricket	-13881
▁crítico	-13882
▁curiosa	-13883
▁curtain	-13884
▁círculo	-13885
▁códigos	-13886
▁decidió	-13887
▁dedicar	-13888
▁deepest	-13889
▁demanda	-13890
▁depends	-13891
▁depreci	-13892
▁descons	-13893
▁despido	-13894
▁detalle	-13895
▁dilemma	-13896
▁discurr	-13897
▁dismiss	-13898
▁distors	-13899
ré	-13900
zó	-13901
».	-13902
Jos	-13903
bab	-13904
ees	-13905
gel	-13906
jan	-13907
usa	-13908
yan	-13909
▁ed	-13910
▁há	-13911
esas	-13912
gent	-13913
idor	-13914
jero	-13915
lous	-13916
onic	-13917
usal	-13918
xing	-13919
▁dor	-13920
Josse	-13921
ening	-13922
ondrá	-13923
recis	-13924
vamos	-13925
▁Araf	-13926
▁Aung	-13927
▁ELDR	-13928
▁Terr	-13929
▁cyan	-13930
▁door	-13931
▁mied	-13932
▁salv	-13933
▁wand	-13934
efield	-13935
erusal	-13936
quemos	-13937
▁18.00	-13938
▁Artic	-13939
▁Often	-13940
▁cited	-13941
▁earth	-13942
▁estir	-13943
▁remon	-13944
▁trasl	-13945
ections	-13946
ectoria	-13947
itative	-13948
ásticos	-13949
▁Arafat	-13950
▁Zimbab	-13951
▁desigu	-13952
▁desvir	-13953
▁difusa	-13954
▁escase	-13955
▁miedos	-13956
▁ovejas	-13957
▁visual	-13958
ceptical	-13959
tificial	-13960
▁Funding	-13961
▁Israeli	-13962
▁Jerusal	-13963
▁cyanide	-13964
▁damaged	-13965
▁donante	-13966
▁dragged	-13967
▁driving	-13968
▁débiles	-13969
▁déficit	-13970
▁effects	-13971
▁elegida	-13972
▁embalse	-13973
▁embrace	-13974
▁empieza	-13975
▁entiend	-13976
▁erróneo	-13977
▁escasez	-13978
▁escasos	-13979
▁escocés	-13980
▁escrita	-13981
▁especie	-13982
▁estarán	-13983
▁ethical	-13984
▁evaluar	-13985
▁exacerb	-13986
▁existan	-13987
▁exitosa	-13988
▁expense	-13989
▁expirar	-13990
▁explica	-13991
▁explore	-13992
▁extraer	-13993
▁facilit	-13994
▁feature	-13995
▁fiction	-13996
▁figurar	-13997
▁finesse	-13998
▁firmado	-13999
52	-14000
524	-14001
Sus	-14002
adr	-14003
hay	-14004
oir	-14005
run	-14006
▁2,	-14007
▁51	-14008
▁XX	-14009
▁ín	-14010
alos	-14011
itas	-14012
nest	-14013
oirs	-14014
quit	-14015
rote	-14016
ührt	-14017
▁240	-14018
▁Cro	-14019
▁alm	-14020
▁bes	-14021
▁cán	-14022
gular	-14023
ivind	-14024
nesty	-14025
ocard	-14026
▁Goal	-14027
▁casa	-14028
▁gene	-14029
▁inal	-14030
▁intr	-14031
▁mank	-14032
▁mine	-14033
▁ocul	-14034
▁siga	-14035
parent	-14036
íticos	-14037
▁carne	-14038
▁costa	-14039
▁trust	-14040
▁wrote	-14041
▁70/524	-14042
▁Rocard	-14043
▁anonim	-14044
▁cáncer	-14045
▁dating	-14046
▁helped	-14047
▁lawyer	-14048
▁lifted	-14049
▁partis	-14050
▁permis	-14051
▁transn	-14052
▁twelve	-14053
▁étnico	-14054
▁únicos	-14055
certante	-14056
informed	-14057
▁Amnesty	-14058
▁Finance	-14059
▁History	-14060
▁almacen	-14061
▁angular	-14062
▁decenas	-14063
▁forgive	-14064
▁fragile	-14065
▁fraudul	-14066
▁fullest	-14067
▁fáciles	-14068
▁gradual	-14069
▁groundw	-14070
▁guardar	-14071
▁haberlo	-14072
▁hablaba	-14073
▁haciénd	-14074
▁handled	-14075
▁hardest	-14076
▁hiciera	-14077
▁hombros	-14078
▁homogén	-14079
▁horizon	-14080
▁hospice	-14081
▁hubiese	-14082
▁iguales	-14083
▁ilustra	-14084
▁imagina	-14085
▁immense	-14086
▁inadecu	-14087
▁incompe	-14088
▁incompr	-14089
▁incongr	-14090
▁indefin	-14091
▁indicio	-14092
▁indirec	-14093
▁inercia	-14094
▁inertia	-14095
▁influen	-14096
▁influir	-14097
▁infring	-14098
▁inglesa	-14099
19	-14100
tó	-14101
ív	-14102
any	-14103
fou	-14104
gen	-14105
num	-14106
tre	-14107
uck	-14108
▁69	-14109
▁IC	-14110
atch	-14111
fany	-14112
oure	-14113
reso	-14114
ulto	-14115
▁Ear	-14116
▁Ses	-14117
▁bea	-14118
▁ced	-14119
▁cra	-14120
▁fle	-14121
▁rar	-14122
▁rea	-14123
ecerá	-14124
endas	-14125
gando	-14126
posed	-14127
yendo	-14128
▁Acep	-14129
▁cian	-14130
▁cond	-14131
▁dele	-14132
▁iría	-14133
▁misn	-14134
▁muev	-14135
▁quel	-14136
▁quem	-14137
▁toca	-14138
▁tuna	-14139
liance	-14140
▁Roure	-14141
▁Stand	-14142
▁atlán	-14143
▁tanta	-14144
atement	-14145
fanyurt	-14146
▁Código	-14147
▁adopta	-14148
▁attain	-14149
▁centra	-14150
▁margen	-14151
▁muevan	-14152
▁reside	-14153
▁twenty	-14154
▁vacuna	-14155
▁Bernard	-14156
▁Coordin	-14157
▁cianuro	-14158
▁distort	-14159
▁exceeds	-14160
▁inhabit	-14161
▁insiste	-14162
▁insular	-14163
▁intelig	-14164
▁intends	-14165
▁intentó	-14166
▁inversa	-14167
▁juicios	-14168
▁killing	-14169
▁landmin	-14170
▁leaders	-14171
▁lengthy	-14172
▁limpias	-14173
▁logical	-14174
▁mammals	-14175
▁mammoth	-14176
▁mamífer	-14177
▁manager	-14178
▁mankind	-14179
▁mantend	-14180
▁manufac	-14181
▁marcado	-14182
▁matched	-14183
▁memoria	-14184
▁mergers	-14185
▁meritor	-14186
▁milenio	-14187
▁minimis	-14188
▁modelos	-14189
▁monedas	-14190
▁morator	-14191
▁máximos	-14192
▁méritos	-14193
▁mínimos	-14194
▁navegan	-14195
▁negocio	-14196
▁nombrar	-14197
▁notific	-14198
▁números	-14199
BI	-14200
SJ	-14201
sor	-14202
uiz	-14203
▁WP	-14204
cles	-14205
deno	-14206
inco	-14207
olso	-14208
tuar	-14209
ulso	-14210
▁FBI	-14211
▁IMO	-14212
▁yen	-14213
ablar	-14214
acces	-14215
ativo	-14216
tubre	-14217
urvis	-14218
ótica	-14219
▁None	-14220
▁Pent	-14221
▁Ruiz	-14222
▁WPPT	-14223
▁Want	-14224
▁agra	-14225
▁band	-14226
▁doce	-14227
▁ears	-14228
▁fort	-14229
▁hubo	-14230
▁obso	-14231
▁prom	-14232
▁roll	-14233
inados	-14234
▁Cinco	-14235
▁Enlar	-14236
▁Knörr	-14237
▁Occid	-14238
▁Promo	-14239
▁Which	-14240
▁disco	-14241
▁etapa	-14242
▁frost	-14243
▁occid	-14244
leading	-14245
pleados	-14246
▁Canyon	-14247
▁Purvis	-14248
▁Schult	-14249
▁acepto	-14250
▁affair	-14251
▁costas	-14252
▁machin	-14253
▁perple	-14254
▁strand	-14255
udadanos	-14256
▁Condeno	-14257
▁Lebanon	-14258
▁Schultz	-14259
▁arrastr	-14260
▁causado	-14261
▁caótica	-14262
▁heridos	-14263
▁impulso	-14264
▁indivis	-14265
▁interim	-14266
▁interin	-14267
▁interre	-14268
▁obligan	-14269
▁obliged	-14270
▁obscure	-14271
▁observa	-14272
▁observe	-14273
▁octubre	-14274
▁offered	-14275
▁oneself	-14276
▁optimum	-14277
▁oradora	-14278
▁outline	-14279
▁pantano	-14280
▁paradox	-14281
▁partial	-14282
▁patente	-14283
▁penales	-14284
▁percent	-14285
▁periods	-14286
▁persuad	-14287
▁phasing	-14288
▁piensan	-14289
▁pilares	-14290
▁pillars	-14291
▁planned	-14292
▁planteó	-14293
▁policía	-14294
▁pondrán	-14295
▁poseerá	-14296
▁premisa	-14297
▁premise	-14298
▁primary	-14299
7%	-14300
ots	-14301
ardo	-14302
aste	-14303
igne	-14304
noon	-14305
ucar	-14306
▁28%	-14307
▁30,	-14308
▁97.	-14309
▁God	-14310
▁tag	-14311
▁tej	-14312
esper	-14313
heres	-14314
matic	-14315
olved	-14316
ourse	-14317
teles	-14318
venge	-14319
venue	-14320
▁Hong	-14321
▁brom	-14322
▁ends	-14323
▁prec	-14324
▁pudo	-14325
▁pura	-14326
▁shel	-14327
▁tand	-14328
active	-14329
tative	-14330
vencia	-14331
▁2003.	-14332
▁Italy	-14333
▁creía	-14334
▁fijan	-14335
▁impor	-14336
▁round	-14337
▁salga	-14338
▁vengo	-14339
▁voces	-14340
aleidos	-14341
ionales	-14342
omenaje	-14343
peramos	-14344
▁anticu	-14345
▁avenue	-14346
▁bromin	-14347
▁cargas	-14348
▁cubrir	-14349
▁drafts	-14350
▁eleven	-14351
▁preste	-14352
▁sought	-14353
▁tandem	-14354
▁theory	-14355
▁update	-14356
European	-14357
pression	-14358
▁Próxima	-14359
▁Turning	-14360
▁antiguo	-14361
▁llegada	-14362
▁procedo	-14363
▁profits	-14364
▁promesa	-14365
▁prosecu	-14366
▁pruebas	-14367
▁qualify	-14368
▁quieran	-14369
▁raising	-14370
▁recibió	-14371
▁recipro	-14372
▁recoger	-14373
▁recuper	-14374
▁refirió	-14375
▁refused	-14376
▁regimes	-14377
▁reivind	-14378
▁rejects	-14379
▁release	-14380
▁remedio	-14381
▁renewed	-14382
▁renovar	-14383
▁reparar	-14384
▁repitan	-14385
▁replied	-14386
▁rescate	-14387
▁reserve	-14388
▁retirar	-14389
▁retrasa	-14390
▁reunirá	-14391
▁revenge	-14392
▁rotundo	-14393
▁running	-14394
▁saberlo	-14395
▁savings	-14396
▁seafood	-14397
▁seguida	-14398
▁seguido	-14399
aún	-14400
izó	-14401
▁29	-14402
▁73	-14403
▁82	-14404
▁án	-14405
omes	-14406
pace	-14407
para	-14408
wies	-14409
▁47%	-14410
▁Har	-14411
▁TSE	-14412
▁pot	-14413
bemos	-14414
endrá	-14415
llers	-14416
uerto	-14417
uries	-14418
▁Noiz	-14419
▁Star	-14420
▁atún	-14421
▁bomb	-14422
▁cree	-14423
▁enve	-14424
▁fave	-14425
▁gall	-14426
▁pern	-14427
▁pier	-14428
▁relu	-14429
atario	-14430
person	-14431
usting	-14432
▁1987.	-14433
▁Feder	-14434
▁Pomes	-14435
▁creen	-14436
▁heter	-14437
▁impid	-14438
▁opted	-14439
▁roles	-14440
▁space	-14441
▁trató	-14442
▁uncon	-14443
portant	-14444
purpose	-14445
usewies	-14446
▁(1999)	-14447
▁79/409	-14448
▁Gorsel	-14449
▁NASDAQ	-14450
▁creará	-14451
▁debajo	-14452
▁endang	-14453
▁invito	-14454
▁mantra	-14455
landesas	-14456
▁Beazley	-14457
▁Harbour	-14458
▁Macedon	-14459
▁actuado	-14460
▁favelas	-14461
▁ofrecen	-14462
▁relucir	-14463
▁seguirá	-14464
▁sepamos	-14465
▁separar	-14466
▁seremos	-14467
▁shortly	-14468
▁sincere	-14469
▁someter	-14470
▁spheres	-14471
▁subesti	-14472
▁sucedió	-14473
▁sucesos	-14474
▁suffice	-14475
▁suffici	-14476
▁sugiere	-14477
▁surface	-14478
▁surtirá	-14479
▁símbolo	-14480
▁tardado	-14481
▁tardará	-14482
▁telecom	-14483
▁telling	-14484
▁termine	-14485
▁testify	-14486
▁tolerar	-14487
▁tortura	-14488
▁torture	-14489
▁touches	-14490
▁trained	-14491
▁traspas	-14492
▁treated	-14493
▁treinta	-14494
▁trouble	-14495
▁trágico	-14496
▁turnout	-14497
▁uncondi	-14498
▁urbanas	-14499
▁81	-14500
Rest	-14501
cedo	-14502
ifts	-14503
irac	-14504
mire	-14505
prit	-14506
▁apa	-14507
▁cha	-14508
▁jug	-14509
actor	-14510
ergen	-14511
zadas	-14512
▁Cash	-14513
▁Feli	-14514
▁Kong	-14515
▁Pact	-14516
▁caro	-14517
▁impr	-14518
▁ment	-14519
▁rast	-14520
▁sint	-14521
Bergen	-14522
ientas	-14523
ierten	-14524
metros	-14525
untain	-14526
versed	-14527
▁ceder	-14528
▁crust	-14529
▁gusto	-14530
▁impre	-14531
▁insto	-14532
▁opens	-14533
▁paint	-14534
▁recep	-14535
▁techo	-14536
▁toque	-14537
Restore	-14538
blowers	-14539
▁Chirac	-14540
▁Copenh	-14541
▁Reding	-14542
▁acting	-14543
▁agency	-14544
▁despil	-14545
▁eludir	-14546
▁esprit	-14547
▁finish	-14548
▁frater	-14549
▁guarda	-14550
▁impone	-14551
▁myster	-14552
▁plants	-14553
▁rastre	-14554
▁recuer	-14555
▁surtir	-14556
▁Cashman	-14557
▁Concedo	-14558
▁Proceso	-14559
▁adapted	-14560
▁aseguro	-14561
▁consult	-14562
▁empiece	-14563
▁exagger	-14564
▁fratern	-14565
[...]
